{
  "version": "1.0",
  "truncation": null,
  "padding": null,
  "added_tokens": [
    {
      "id": 0,
      "content": "<unk>",
      "single_word": false,
      "lstrip": false,
      "rstrip": false,
      "normalized": false,
      "special": true
    },
    {
      "id": 1,
      "content": "<eos>",
      "single_word": false,
      "lstrip": false,
      "rstrip": false,
      "normalized": false,
      "special": true
    }
  ],
  "normalizer": null,
  "pre_tokenizer": {
    "type": "ByteLevel",
    "add_prefix_space": true,
    "trim_offsets": true,
    "use_regex": true
  },
  "post_processor": null,
  "decoder": {
    "type": "ByteLevel",
    "add_prefix_space": true,
    "trim_offsets": true,
    "use_regex": true
  },
  "model": {
    "type": "BPE",
    "dropout": null,
    "unk_token": "<unk>",
    "continuing_subword_prefix": null,
    "end_of_word_suffix": null,
    "fuse_unk": false,
    "byte_fallback": false,
    "ignore_merges": false,
    "vocab": {
      "<unk>": 0,
      "<eos>": 1,
      "!": 2,
      "\"": 3,
      "#": 4,
      "$": 5,
      "%": 6,
      "&": 7,
      "'": 8,
      "(": 9,
      ")": 10,
      "*": 11,
      "+": 12,
      ",": 13,
      "-": 14,
      ".": 15,
      "/": 16,
      "0": 17,
      "1": 18,
      "2": 19,
      "3": 20,
      "4": 21,
      "5": 22,
      "6": 23,
      "7": 24,
      "8": 25,
      "9": 26,
      ":": 27,
      ";": 28,
      "<": 29,
      "=": 30,
      ">": 31,
      "?": 32,
      "@": 33,
      "A": 34,
      "B": 35,
      "C": 36,
      "D": 37,
      "E": 38,
      "F": 39,
      "G": 40,
      "H": 41,
      "I": 42,
      "J": 43,
      "K": 44,
      "L": 45,
      "M": 46,
      "N": 47,
      "O": 48,
      "P": 49,
      "Q": 50,
      "R": 51,
      "S": 52,
      "T": 53,
      "U": 54,
      "V": 55,
      "W": 56,
      "X": 57,
      "Y": 58,
      "Z": 59,
      "[": 60,
      "\\": 61,
      "]": 62,
      "^": 63,
      "_": 64,
      "`": 65,
      "a": 66,
      "b": 67,
      "c": 68,
      "d": 69,
      "e": 70,
      "f": 71,
      "g": 72,
      "h": 73,
      "i": 74,
      "j": 75,
      "k": 76,
      "l": 77,
      "m": 78,
      "n": 79,
      "o": 80,
      "p": 81,
      "q": 82,
      "r": 83,
      "s": 84,
      "t": 85,
      "u": 86,
      "v": 87,
      "w": 88,
      "x": 89,
      "y": 90,
      "z": 91,
      "{": 92,
      "|": 93,
      "}": 94,
      "~": 95,
      "¡": 96,
      "¢": 97,
      "£": 98,
      "¤": 99,
      "¥": 100,
      "¦": 101,
      "§": 102,
      "¨": 103,
      "©": 104,
      "ª": 105,
      "«": 106,
      "¬": 107,
      "®": 108,
      "¯": 109,
      "°": 110,
      "±": 111,
      "²": 112,
      "³": 113,
      "´": 114,
      "µ": 115,
      "¶": 116,
      "·": 117,
      "¸": 118,
      "¹": 119,
      "º": 120,
      "»": 121,
      "¼": 122,
      "½": 123,
      "¾": 124,
      "¿": 125,
      "Â": 126,
      "Ã": 127,
      "Ä": 128,
      "Å": 129,
      "Æ": 130,
      "Ç": 131,
      "È": 132,
      "É": 133,
      "Ê": 134,
      "Ë": 135,
      "Ì": 136,
      "Í": 137,
      "Î": 138,
      "Ï": 139,
      "Ð": 140,
      "Ñ": 141,
      "Ò": 142,
      "Ó": 143,
      "Ô": 144,
      "Õ": 145,
      "Ö": 146,
      "×": 147,
      "Ø": 148,
      "Ù": 149,
      "Ú": 150,
      "Û": 151,
      "Ü": 152,
      "Ý": 153,
      "Þ": 154,
      "ß": 155,
      "à": 156,
      "á": 157,
      "â": 158,
      "ã": 159,
      "ä": 160,
      "å": 161,
      "æ": 162,
      "ç": 163,
      "è": 164,
      "é": 165,
      "ê": 166,
      "ë": 167,
      "ì": 168,
      "í": 169,
      "î": 170,
      "ï": 171,
      "ð": 172,
      "ó": 173,
      "Ă": 174,
      "Đ": 175,
      "đ": 176,
      "Ę": 177,
      "Ġ": 178,
      "Ģ": 179,
      "ģ": 180,
      "Ĥ": 181,
      "ĥ": 182,
      "Ħ": 183,
      "ħ": 184,
      "Ĩ": 185,
      "ĩ": 186,
      "Ī": 187,
      "ī": 188,
      "Ĭ": 189,
      "ĭ": 190,
      "Į": 191,
      "į": 192,
      "İ": 193,
      "ı": 194,
      "Ĳ": 195,
      "ĳ": 196,
      "Ĵ": 197,
      "ĵ": 198,
      "Ķ": 199,
      "ķ": 200,
      "ĸ": 201,
      "Ĺ": 202,
      "ĺ": 203,
      "Ļ": 204,
      "ļ": 205,
      "Ľ": 206,
      "ľ": 207,
      "Ŀ": 208,
      "ŀ": 209,
      "Ł": 210,
      "ł": 211,
      "Ń": 212,
      "Ġt": 213,
      "Ġa": 214,
      "he": 215,
      "in": 216,
      "re": 217,
      "on": 218,
      "Ġthe": 219,
      "Ġs": 220,
      "er": 221,
      "at": 222,
      "Ġc": 223,
      "Ġo": 224,
      "en": 225,
      "Ġw": 226,
      "is": 227,
      "it": 228,
      "es": 229,
      "an": 230,
      "ou": 231,
      "or": 232,
      "Ġp": 233,
      "Ġb": 234,
      "Ġan": 235,
      "Ġf": 236,
      "ing": 237,
      "al": 238,
      "Ġm": 239,
      "Ġto": 240,
      "Ġd": 241,
      "ar": 242,
      "ed": 243,
      "Ġin": 244,
      "Ġand": 245,
      "Ġof": 246,
      "le": 247,
      "ion": 248,
      "ic": 249,
      "Ġth": 250,
      "om": 251,
      "as": 252,
      "Ġh": 253,
      "ĠÐ": 254,
      "Ġe": 255,
      "Ġn": 256,
      "ent": 257,
      "ct": 258,
      "Ġl": 259,
      "ve": 260,
      "Ġis": 261,
      "Ġre": 262,
      "ĠT": 263,
      "Ġy": 264,
      "us": 265,
      "ro": 266,
      "il": 267,
      "ĠI": 268,
      "et": 269,
      "Ġyou": 270,
      "ly": 271,
      "Ġg": 272,
      "ot": 273,
      "Ð¾": 274,
      "Ġbe": 275,
      "ut": 276,
      "im": 277,
      "Ð°": 278,
      "Ġthat": 279,
      "Ðµ": 280,
      "ce": 281,
      "à¤": 282,
      "id": 283,
      "st": 284,
      "ra": 285,
      "ig": 286,
      "ow": 287,
      "Ġfor": 288,
      "Ġon": 289,
      "el": 290,
      "ĠA": 291,
      "ĠS": 292,
      "ch": 293,
      "un": 294,
      "ation": 295,
      "ol": 296,
      "Ġst": 297,
      "ÑĤ": 298,
      "Ġit": 299,
      "ver": 300,
      "ay": 301,
      "ur": 302,
      "Ð¸": 303,
      "am": 304,
      "ith": 305,
      "if": 306,
      "ir": 307,
      "ĠThe": 308,
      "ad": 309,
      "ul": 310,
      "Ġcon": 311,
      "Ġwith": 312,
      "Ġas": 313,
      "her": 314,
      "se": 315,
      "ĠC": 316,
      "Ð½": 317,
      "Ġal": 318,
      "Ñģ": 319,
      "Ġor": 320,
      "Ġpro": 321,
      "Ġ(": 322,
      "ÑĢ": 323,
      "qu": 324,
      "Ġwh": 325,
      "Ġ$": 326,
      "Ġare": 327,
      "ke": 328,
      "Ġde": 329,
      "ld": 330,
      "um": 331,
      "Ġv": 332,
      "ate": 333,
      "Ġex": 334,
      "ter": 335,
      "od": 336,
      "ge": 337,
      "Ġcan": 338,
      "Ð¾Ð": 339,
      "Ġ1": 340,
      "ĠM": 341,
      "Ġcom": 342,
      "Ġhe": 343,
      "ĠB": 344,
      "ab": 345,
      "áĥ": 346,
      "ers": 347,
      "ĠP": 348,
      "ess": 349,
      "'s": 350,
      "ore": 351,
      "ill": 352,
      "ri": 353,
      "igh": 354,
      "pp": 355,
      "Ġ-": 356,
      "Ġha": 357,
      "ĠH": 358,
      "âĢ": 359,
      "os": 360,
      "est": 361,
      "Ġwe": 362,
      "ist": 363,
      "em": 364,
      "Ġsu": 365,
      "Ġus": 366,
      "ĠW": 367,
      "Ġnot": 368,
      "ect": 369,
      "ac": 370,
      "ant": 371,
      "ould": 372,
      "ive": 373,
      "ity": 374,
      "Ġyour": 375,
      "Ġ\"": 376,
      "and": 377,
      "res": 378,
      "ĠF": 379,
      "Ġse": 380,
      "Ġne": 381,
      "Ġr": 382,
      "th": 383,
      "ment": 384,
      "à¦": 385,
      "oun": 386,
      "rom": 387,
      "Ð»": 388,
      "ĠD": 389,
      "Ġ2": 390,
      "Ġat": 391,
      "ĠN": 392,
      "op": 393,
      "à´": 394,
      "Ġun": 395,
      "ight": 396,
      "Ġch": 397,
      "Ġthis": 398,
      "Ġhave": 399,
      "ain": 400,
      "Ġen": 401,
      "Ġk": 402,
      "ĠE": 403,
      "iv": 404,
      "ies": 405,
      "ĠR": 406,
      "art": 407,
      "ust": 408,
      "Ġsp": 409,
      "Ġby": 410,
      "ĠL": 411,
      "Ġle": 412,
      "à®": 413,
      "oc": 414,
      "ort": 415,
      "ere": 416,
      "ial": 417,
      "Ġsh": 418,
      "Ñĥ": 419,
      "ure": 420,
      "ome": 421,
      "Ġfrom": 422,
      "ĠTh": 423,
      "ĠG": 424,
      "à¥": 425,
      "all": 426,
      "à¸": 427,
      "ud": 428,
      "Ø§": 429,
      "Ġwor": 430,
      "pl": 431,
      "Ġwas": 432,
      "pt": 433,
      "Ġab": 434,
      "ak": 435,
      "ĠO": 436,
      "Ġdo": 437,
      "Ð°Ð": 438,
      "ag": 439,
      "ions": 440,
      "Ġj": 441,
      "end": 442,
      "Ġme": 443,
      "act": 444,
      "per": 445,
      "ally": 446,
      "ie": 447,
      "out": 448,
      "ine": 449,
      "ĠIn": 450,
      "ich": 451,
      "Ġint": 452,
      "iz": 453,
      "Ġ\\": 454,
      "Ġbut": 455,
      "ide": 456,
      "Ġpl": 457,
      "ther": 458,
      "Ġim": 459,
      "Ġwill": 460,
      "Ġwhe": 461,
      "Ġà¤": 462,
      "our": 463,
      "ple": 464,
      "gh": 465,
      "ard": 466,
      "ÐµÐ": 467,
      "ell": 468,
      "age": 469,
      "Ġall": 470,
      "og": 471,
      "Ġqu": 472,
      "Ġthey": 473,
      "ost": 474,
      "Ġad": 475,
      "ast": 476,
      "are": 477,
      "ind": 478,
      "up": 479,
      "ok": 480,
      "Ñĭ": 481,
      "..": 482,
      "ff": 483,
      "Ġmore": 484,
      "Ġtheir": 485,
      "ake": 486,
      "able": 487,
      "ound": 488,
      "ough": 489,
      "Ñı": 490,
      "ap": 491,
      "du": 492,
      "Ġtr": 493,
      "Ġ×": 494,
      "ib": 495,
      "Ġif": 496,
      "ans": 497,
      "Ġar": 498,
      "ike": 499,
      "ĠY": 500,
      "ĠThis": 501,
      "Ġwhich": 502,
      "'t": 503,
      "00": 504,
      "so": 505,
      "orm": 506,
      "Ġcont": 507,
      "ip": 508,
      "Ġso": 509,
      "Ġhas": 510,
      "ire": 511,
      "Ġ=": 512,
      "Ġgo": 513,
      "ec": 514,
      "ical": 515,
      "ack": 516,
      "ĠÐ¿": 517,
      "der": 518,
      "ue": 519,
      "nt": 520,
      "Ġcl": 521,
      "ime": 522,
      "ations": 523,
      "Ġwould": 524,
      "ult": 525,
      "ĠJ": 526,
      "Ðº": 527,
      "ence": 528,
      "ÑĮ": 529,
      "ach": 530,
      "Ġres": 531,
      "ous": 532,
      "Ġother": 533,
      "ĠØ": 534,
      "Ġout": 535,
      "ice": 536,
      "ĠÑģ": 537,
      "ance": 538,
      "Ġone": 539,
      "ction": 540,
      "int": 541,
      "ame": 542,
      "Ġ3": 543,
      "Ġinc": 544,
      "ated": 545,
      "ãģ": 546,
      "Ġsome": 547,
      "ong": 548,
      "cc": 549,
      "ĠIt": 550,
      "one": 551,
      "ĠU": 552,
      "Ġfe": 553,
      "Ġapp": 554,
      "ase": 555,
      "ass": 556,
      "ep": 557,
      "av": 558,
      "ĠâĢ": 559,
      "âĢĻ": 560,
      "ook": 561,
      "ĠÐ½": 562,
      "Ġlike": 563,
      "Ġcomp": 564,
      "Ġalso": 565,
      "ite": 566,
      "ign": 567,
      "ace": 568,
      "Ġthere": 569,
      "Ġte": 570,
      "vel": 571,
      "ang": 572,
      "Ġev": 573,
      "Ġup": 574,
      "ĠÐ²": 575,
      "Ñĩ": 576,
      "Ð²": 577,
      "Ġany": 578,
      "Ġthem": 579,
      "very": 580,
      "Ġabout": 581,
      "ition": 582,
      "Ġman": 583,
      "Ġper": 584,
      "ose": 585,
      "ia": 586,
      "Ġimp": 587,
      "àµ": 588,
      "ll": 589,
      "ĠÙ": 590,
      "ath": 591,
      "ry": 592,
      "ber": 593,
      "form": 594,
      "Ð´": 595,
      "ru": 596,
      "Ġkn": 597,
      "ary": 598,
      "fere": 599,
      "ens": 600,
      "Ġmy": 601,
      "Ġpre": 602,
      "Ġwork": 603,
      "Ġdis": 604,
      "ress": 605,
      "ile": 606,
      "ear": 607,
      "Ġpart": 608,
      "à¯": 609,
      "Ġtime": 610,
      "ail": 611,
      "Ġuse": 612,
      "aus": 613,
      "ces": 614,
      "Ġher": 615,
      "Ġcre": 616,
      "Ġro": 617,
      "ĠK": 618,
      "te": 619,
      "ĠV": 620,
      "ÑģÑĤ": 621,
      "Ġsc": 622,
      "low": 623,
      "ents": 624,
      "Ø§Ù": 625,
      "Ġdif": 626,
      "Ġcould": 627,
      "Ġhis": 628,
      "Ð¼": 629,
      "Ġdes": 630,
      "ory": 631,
      "ÐµÐ½": 632,
      "ings": 633,
      "Ġtra": 634,
      "ific": 635,
      "ck": 636,
      "ĠIf": 637,
      "Ġwho": 638,
      ").": 639,
      "ays": 640,
      "à¤¾": 641,
      "Ġneed": 642,
      "ĠAn": 643,
      "Ġ.": 644,
      "ater": 645,
      "Ġget": 646,
      "ink": 647,
      "ph": 648,
      "Ġno": 649,
      "ount": 650,
      "ors": 651,
      "Ġits": 652,
      "Ġpo": 653,
      "Ġknow": 654,
      "Ġ4": 655,
      "Ġwhat": 656,
      "Ġ$\\": 657,
      "ove": 658,
      "Ġbec": 659,
      "Ġ*": 660,
      "ord": 661,
      "ub": 662,
      "Ġem": 663,
      "Ġover": 664,
      "Ġsuch": 665,
      "xt": 666,
      "Ġhel": 667,
      "Ġwhen": 668,
      "Ġmay": 669,
      "ft": 670,
      "ĠYou": 671,
      "Ġcons": 672,
      "Ø±": 673,
      "Ġbet": 674,
      "ne": 675,
      "Ġinto": 676,
      "ĠSt": 677,
      "Ġpr": 678,
      "ree": 679,
      "Ġhelp": 680,
      "Ġind": 681,
      "Ġthan": 682,
      "Ġcomm": 683,
      "Ġjust": 684,
      "ject": 685,
      "ov": 686,
      "Ġsy": 687,
      "ĠÐ¾": 688,
      "ond": 689,
      "ark": 690,
      "Ġ`": 691,
      "ual": 692,
      "Ġ5": 693,
      "Ġpe": 694,
      "Ġthen": 695,
      "ick": 696,
      "Ġpos": 697,
      "ĠÐ¸": 698,
      "ari": 699,
      "Ã©": 700,
      "ating": 701,
      "ÛĮ": 702,
      "ons": 703,
      "Ġrel": 704,
      "Ġtw": 705,
      "Ġhow": 706,
      "elf": 707,
      "Ġoff": 708,
      "ause": 709,
      "ish": 710,
      "Ġ,": 711,
      "Ġfun": 712,
      "les": 713,
      "we": 714,
      "ative": 715,
      "Ġsa": 716,
      "Ġam": 717,
      "Ġmake": 718,
      "Ġadd": 719,
      "Ġnew": 720,
      "Ġ20": 721,
      "ram": 722,
      "Ġdiffere": 723,
      "ful": 724,
      "lud": 725,
      "erv": 726,
      "Ġph": 727,
      "Ġhad": 728,
      "Ġgr": 729,
      "Ð¾Ð²": 730,
      "Ġacc": 731,
      "eth": 732,
      "Ġonly": 733,
      "Ġprov": 734,
      "ates": 735,
      "Ġag": 736,
      "Ġwhere": 737,
      "Ġrec": 738,
      "Ġact": 739,
      "Ġinter": 740,
      "ict": 741,
      "erm": 742,
      "vers": 743,
      "irst": 744,
      "×Ļ": 745,
      "Ġunder": 746,
      "ÑĤÐ¾": 747,
      "ĠCh": 748,
      "à§": 749,
      "ood": 750,
      "Ġnum": 751,
      "Ġwere": 752,
      "Ġob": 753,
      "Ġour": 754,
      "ild": 755,
      "ĠÐ´": 756,
      "ĠAs": 757,
      "wn": 758,
      "ise": 759,
      "ĠÐº": 760,
      "Ġshe": 761,
      "Ġthese": 762,
      "ible": 763,
      "rough": 764,
      "Ġco": 765,
      "×ķ": 766,
      "own": 767,
      "ility": 768,
      "Ġexam": 769,
      "Ġprodu": 770,
      "Ġla": 771,
      "Ġform": 772,
      "ener": 773,
      "ys": 774,
      "ĠÑ": 775,
      "Ġcol": 776,
      "Ġexp": 777,
      "Ġway": 778,
      "eg": 779,
      "Ġbeen": 780,
      "Ġused": 781,
      "lect": 782,
      "urn": 783,
      "ob": 784,
      "Ġspec": 785,
      "Ġtwo": 786,
      "Ð°Ð½": 787,
      "Ġprob": 788,
      "...": 789,
      "ities": 790,
      "ange": 791,
      "à¥į": 792,
      "ular": 793,
      "ĠWe": 794,
      "ÐµÑĢ": 795,
      "rit": 796,
      "ments": 797,
      "Ġpers": 798,
      "Ġinclud": 799,
      "ople": 800,
      "),": 801,
      "Ã¡": 802,
      "oth": 803,
      "Ġeff": 804,
      "ĠÐ¼": 805,
      "ics": 806,
      "Ġsim": 807,
      "cess": 808,
      "ng": 809,
      "Ġsee": 810,
      "Ġbl": 811,
      "ient": 812,
      "ert": 813,
      "ãĤ": 814,
      "Ġdoes": 815,
      "Ġval": 816,
      "Ġ+": 817,
      "ata": 818,
      "ĠFor": 819,
      "Õ¡": 820,
      "Ġra": 821,
      "ĠÑĤ": 822,
      "ME": 823,
      "ÐµÑĤ": 824,
      "Ġshould": 825,
      "Ġset": 826,
      "Ġà¦": 827,
      "Ġwant": 828,
      "get": 829,
      "ks": 830,
      "àµį": 831,
      "ĠWh": 832,
      "hen": 833,
      "Ġmod": 834,
      "Ġdef": 835,
      "ds": 836,
      "rib": 837,
      "Ġ0": 838,
      "yp": 839,
      "Ġexper": 840,
      "Ġke": 841,
      "Ġatt": 842,
      "ik": 843,
      "Ġfl": 844,
      "ting": 845,
      "Ġrep": 846,
      "stem": 847,
      "aking": 848,
      "Ġpeople": 849,
      "ÑĪ": 850,
      "fore": 851,
      "Ġfirst": 852,
      "Ġstr": 853,
      "Ġchar": 854,
      "Ġthrough": 855,
      "Ø§Ø": 856,
      "Ġsm": 857,
      "Ġdifferent": 858,
      "ÙĪ": 859,
      "olog": 860,
      "Ġeven": 861,
      "Ð°ÑĤ": 862,
      "à¯į": 863,
      "rac": 864,
      "AME": 865,
      "Ġass": 866,
      "ning": 867,
      "ĠÎ": 868,
      "ower": 869,
      "Ġpoint": 870,
      "oy": 871,
      "ract": 872,
      "ize": 873,
      "ĠHe": 874,
      "Ġdon": 875,
      "Ġsub": 876,
      "row": 877,
      "lic": 878,
      "Ġinv": 879,
      "als": 880,
      "ian": 881,
      "ÙĨ": 882,
      "Ġfind": 883,
      "Ġche": 884,
      "reat": 885,
      "Ġwell": 886,
      "à¤°": 887,
      "Ġtrans": 888,
      "ĠÐ¿ÑĢ": 889,
      "Ð°Ð»": 890,
      "Ñħ": 891,
      "Ð¿": 892,
      "ures": 893,
      "ween": 894,
      "Ġmost": 895,
      "Ġequ": 896,
      "ever": 897,
      "ãĥ": 898,
      "Ġeach": 899,
      "Ġbecause": 900,
      "Ġ'": 901,
      "Ġsol": 902,
      "Ġinst": 903,
      "ten": 904,
      "Ð¸ÑĤ": 905,
      "Ġlook": 906,
      "_{": 907,
      "Ġbetween": 908,
      "ience": 909,
      "Ġdet": 910,
      "Ġ[": 911,
      "ider": 912,
      "Ġrem": 913,
      "Ġdec": 914,
      "Ġusing": 915,
      "Ġyear": 916,
      "ious": 917,
      "its": 918,
      "ced": 919,
      "erg": 920,
      "ade": 921,
      "Ð¾Ð»": 922,
      "fter": 923,
      "--": 924,
      "Ġ6": 925,
      "}$": 926,
      "hed": 927,
      "Ġz": 928,
      "Ġevery": 929,
      "ĠNAME": 930,
      "uch": 931,
      "Ġperson": 932,
      "Ġvari": 933,
      "Ġquest": 934,
      "ĠHow": 935,
      "Ġgener": 936,
      "Ġthink": 937,
      "áĥĲ": 938,
      "iew": 939,
      "Ġfol": 940,
      "Ġreg": 941,
      "Ġback": 942,
      "ew": 943,
      "×ķ×": 944,
      "math": 945,
      "red": 946,
      "Ġmat": 947,
      "ĠÐ±": 948,
      "ily": 949,
      "ential": 950,
      "Ġsystem": 951,
      "Ġmight": 952,
      "Ġbu": 953,
      "hes": 954,
      "×Ļ×": 955,
      "cept": 956,
      "Ġac": 957,
      "Ġsame": 958,
      "Õ¡Õ": 959,
      "ĠThere": 960,
      "Ð¾Ð¼": 961,
      "Ð·": 962,
      "Ġexample": 963,
      "Ġsupp": 964,
      "Ñİ": 965,
      "ont": 966,
      "'re": 967,
      "Ġsom": 968,
      "ased": 969,
      "Ø§ÙĦ": 970,
      "other": 971,
      "à¹": 972,
      "Ġcomple": 973,
      "ife": 974,
      "ĠSo": 975,
      "Ġhim": 976,
      "á»": 977,
      "Ġent": 978,
      "Ġsec": 979,
      "ÙĬ": 980,
      "ues": 981,
      "ices": 982,
      "iel": 983,
      "Ġbeing": 984,
      "Ġi": 985,
      "gg": 986,
      "Ð±": 987,
      "âĢĿ": 988,
      "Ġvery": 989,
      "ually": 990,
      "tern": 991,
      "Ġ19": 992,
      "ĠÐ·": 993,
      "Ġcor": 994,
      "Ġexpl": 995,
      "ied": 996,
      "ÐµÐ»": 997,
      "velop": 998,
      "Ġstud": 999,
      "ĠBut": 1000,
      "Ġstart": 1001,
      "ature": 1002,
      "Ġrequ": 1003,
      "Ġgood": 1004,
      "iss": 1005,
      "ĠâĢľ": 1006,
      "Ġmany": 1007,
      "ution": 1008,
      "Ġ201": 1009,
      "ince": 1010,
      "à¥ĩ": 1011,
      "ĠÕ": 1012,
      "Ġinform": 1013,
      "hip": 1014,
      "oup": 1015,
      "Ġtake": 1016,
      "ÙĦ": 1017,
      "ĠÃ": 1018,
      "Ġfollow": 1019,
      "chn": 1020,
      "ren": 1021,
      "Ġimport": 1022,
      "Ġdata": 1023,
      "Ġáĥ": 1024,
      "ness": 1025,
      "Ġsur": 1026,
      "Ġplay": 1027,
      "Ùħ": 1028,
      "ident": 1029,
      "ense": 1030,
      "Ð¾Ð³": 1031,
      "Ġreal": 1032,
      "ric": 1033,
      "Ġloc": 1034,
      "Ġbr": 1035,
      "Ġdist": 1036,
      "old": 1037,
      "Ġhigh": 1038,
      "Ġlong": 1039,
      "Ñĸ": 1040,
      "ĠTo": 1041,
      "Ġsay": 1042,
      "ax": 1043,
      ")$": 1044,
      "iqu": 1045,
      "Ġdisc": 1046,
      "frac": 1047,
      "imes": 1048,
      "Ġhere": 1049,
      "pect": 1050,
      "Ġhand": 1051,
      "Ġposs": 1052,
      "Ġsign": 1053,
      "ĠÐ½Ð°": 1054,
      "Ġfin": 1055,
      "lem": 1056,
      "ts": 1057,
      "Ġcur": 1058,
      "Ġread": 1059,
      "Ġfact": 1060,
      "{\\": 1061,
      "Ġnumber": 1062,
      "ĠAnd": 1063,
      "Ġdep": 1064,
      "Ð½Ð¾": 1065,
      "Ġmin": 1066,
      "Ġown": 1067,
      "Ġgu": 1068,
      "Ġà®": 1069,
      "ather": 1070,
      "Ġx": 1071,
      "Ġ&": 1072,
      "Ġel": 1073,
      "any": 1074,
      "Ġmuch": 1075,
      "to": 1076,
      "Ð¾Ð´": 1077,
      "ef": 1078,
      "Ġins": 1079,
      "Ġworld": 1080,
      "Øª": 1081,
      "stand": 1082,
      "Ġà´": 1083,
      "enc": 1084,
      "sw": 1085,
      "Ð¾ÑĢ": 1086,
      "Ã¤": 1087,
      "ah": 1088,
      "ty": 1089,
      "Ġav": 1090,
      "Ø¯": 1091,
      "nce": 1092,
      "Ġdi": 1093,
      "Ġsk": 1094,
      "ÃŃ": 1095,
      "eng": 1096,
      "ix": 1097,
      "Ġgiv": 1098,
      "Ġ7": 1099,
      "ĠAl": 1100,
      "ÑĨ": 1101,
      "Ġwhile": 1102,
      "Ġeffect": 1103,
      "Ġproduct": 1104,
      "uring": 1105,
      "áĥĺ": 1106,
      "Ġdown": 1107,
      "Ð³": 1108,
      "ward": 1109,
      "Ġinf": 1110,
      "Ġpartic": 1111,
      "Ġappro": 1112,
      "Ġfeel": 1113,
      "arch": 1114,
      "Ġmed": 1115,
      "Ð°Ðº": 1116,
      "Ġret": 1117,
      "ĠÑĢ": 1118,
      "ave": 1119,
      "ically": 1120,
      "ĠThey": 1121,
      "Ġboth": 1122,
      "Ġright": 1123,
      "Ġdevelop": 1124,
      "led": 1125,
      ".\"": 1126,
      "Ġfunction": 1127,
      "Ġcle": 1128,
      "ruct": 1129,
      "áĥĲáĥ": 1130,
      "Ġresult": 1131,
      "Ġpar": 1132,
      "omm": 1133,
      "ock": 1134,
      "ered": 1135,
      "Ġafter": 1136,
      "ier": 1137,
      "Ġref": 1138,
      "ven": 1139,
      "Ġcar": 1140,
      "Ġpres": 1141,
      "read": 1142,
      "ĠÑĩ": 1143,
      "Ġtyp": 1144,
      "Ġ10": 1145,
      "ode": 1146,
      "Ġconc": 1147,
      "Ġcharact": 1148,
      "ething": 1149,
      "akes": 1150,
      "Ġtechn": 1151,
      "ta": 1152,
      "Ġserv": 1153,
      "Ġcase": 1154,
      "Ġshow": 1155,
      "Ã³": 1156,
      "Ġprog": 1157,
      "ism": 1158,
      "ving": 1159,
      "alth": 1160,
      "Ġgra": 1161,
      "tle": 1162,
      "Ġart": 1163,
      "ĠAd": 1164,
      "Î±": 1165,
      "Ġ|": 1166,
      "à¤¿": 1167,
      "Ġbefore": 1168,
      "ergy": 1169,
      "ional": 1170,
      "Ġdid": 1171,
      "Ġide": 1172,
      "Ġansw": 1173,
      "Ð½Ð¸": 1174,
      "Ġext": 1175,
      "self": 1176,
      "Ġcall": 1177,
      "ational": 1178,
      "ÐµÐ¼": 1179,
      "Ġprocess": 1180,
      "Ùĩ": 1181,
      "the": 1182,
      "ĠUn": 1183,
      "Ġmean": 1184,
      "ĠPro": 1185,
      "Ġvis": 1186,
      "Ú©": 1187,
      "Ġop": 1188,
      "ĠHowever": 1189,
      "ural": 1190,
      "Ġlead": 1191,
      "gan": 1192,
      "**": 1193,
      "ma": 1194,
      "Ġsomething": 1195,
      "ines": 1196,
      "Ġproblem": 1197,
      "Ġlet": 1198,
      "Ġallow": 1199,
      "ĠRe": 1200,
      "Ġend": 1201,
      "ized": 1202,
      "Ġthose": 1203,
      "Ġ8": 1204,
      "Ġve": 1205,
      "Ġplan": 1206,
      "ÏĦ": 1207,
      "Ġcreate": 1208,
      "air": 1209,
      "Ġthough": 1210,
      "ason": 1211,
      "ves": 1212,
      "ĠâĢĵ": 1213,
      "ĠØ§ÙĦ": 1214,
      "Ð°ÑĢ": 1215,
      "ull": 1216,
      "ify": 1217,
      "ĠÑĥ": 1218,
      "Ġdire": 1219,
      "Ġagain": 1220,
      "Ġpower": 1221,
      "Ġconst": 1222,
      "Ġunderstand": 1223,
      "Ġspecific": 1224,
      "Ġconsider": 1225,
      "line": 1226,
      "à¦¾": 1227,
      "io": 1228,
      "Î¿": 1229,
      "Ġwater": 1230,
      "à¤¨": 1231,
      "Ġpot": 1232,
      "Ġ#": 1233,
      "Ġlife": 1234,
      "Ð»Ð¸": 1235,
      "ee": 1236,
      "Ġinformation": 1237,
      "20": 1238,
      "dition": 1239,
      "Ġenergy": 1240,
      "arm": 1241,
      "Ġlist": 1242,
      "Ġaut": 1243,
      "ality": 1244,
      "Ġgroup": 1245,
      "Ġ``": 1246,
      "Ð¹": 1247,
      "Ġstill": 1248,
      "Ġsmall": 1249,
      "ute": 1250,
      "Ġnow": 1251,
      "Ġmade": 1252,
      "Ġtry": 1253,
      "Ġconf": 1254,
      "ÐµÐ´": 1255,
      "Ġterm": 1256,
      "Ġstate": 1257,
      "ody": 1258,
      "Ġquestion": 1259,
      "Ġsaid": 1260,
      "iness": 1261,
      "ÑģÐº": 1262,
      "Ġ/": 1263,
      "Ġeas": 1264,
      "ex": 1265,
      "ustom": 1266,
      "Ġclass": 1267,
      "ars": 1268,
      "Ġser": 1269,
      "Ġlar": 1270,
      "ps": 1271,
      "ins": 1272,
      "ner": 1273,
      "ĠHere": 1274,
      "Ġadv": 1275,
      "Ð°Ð²": 1276,
      "nect": 1277,
      "way": 1278,
      "Ġele": 1279,
      "Ġaround": 1280,
      "ros": 1281,
      "Ġday": 1282,
      "}{": 1283,
      "Ġopt": 1284,
      "Ġ:": 1285,
      "^{": 1286,
      "itive": 1287,
      "ote": 1288,
      "ways": 1289,
      "Ġprovid": 1290,
      "Ġcommun": 1291,
      "Ġpol": 1292,
      "ĠSp": 1293,
      "alk": 1294,
      "Ġlear": 1295,
      "Ġed": 1296,
      "Ġ9": 1297,
      "'m": 1298,
      "day": 1299,
      "Ġsoc": 1300,
      "Ġes": 1301,
      "ĠÙħ": 1302,
      "rent": 1303,
      "Ġmon": 1304,
      "'ll": 1305,
      "bs": 1306,
      "ited": 1307,
      "Ġhum": 1308,
      "Ġ```": 1309,
      "ÉĻ": 1310,
      "Ġmem": 1311,
      "Ġcho": 1312,
      "Ġhapp": 1313,
      "Ġ{": 1314,
      "Ġbel": 1315,
      "Ġest": 1316,
      "ork": 1317,
      "à¤¤": 1318,
      "ages": 1319,
      "ases": 1320,
      "Ġbre": 1321,
      "bers": 1322,
      "Ġdel": 1323,
      "Ġcount": 1324,
      "Ġyears": 1325,
      "ern": 1326,
      "Ġmain": 1327,
      "uc": 1328,
      "Ġbo": 1329,
      "ined": 1330,
      "Ġfound": 1331,
      "ology": 1332,
      "Ġdesign": 1333,
      "ĠSh": 1334,
      "less": 1335,
      "Ð½Ñĭ": 1336,
      "Ġ**": 1337,
      "ale": 1338,
      "ield": 1339,
      "ability": 1340,
      "com": 1341,
      "ĠÐ½Ðµ": 1342,
      "Ġbus": 1343,
      "Ġfam": 1344,
      "anc": 1345,
      "áĥĶ": 1346,
      "Ġwithout": 1347,
      "ÖĢ": 1348,
      "ention": 1349,
      "Ġeng": 1350,
      "Ġimportant": 1351,
      "Ġ$$": 1352,
      "ank": 1353,
      "Ð°Ð¼": 1354,
      "Î¹": 1355,
      "Ġlit": 1356,
      "Ġbest": 1357,
      "Ġprovide": 1358,
      "mer": 1359,
      "de": 1360,
      "Ġmust": 1361,
      "ivid": 1362,
      "Ġincre": 1363,
      "Ġpass": 1364,
      "Ġsupport": 1365,
      "ved": 1366,
      "Ġresp": 1367,
      "put": 1368,
      "Ġsl": 1369,
      "ash": 1370,
      "Ġfew": 1371,
      "Ä±": 1372,
      "Ġdesc": 1373,
      "Ð½Ð°": 1374,
      "Ð¾ÑĤ": 1375,
      "els": 1376,
      "erest": 1377,
      "Ġmark": 1378,
      "}\\": 1379,
      "Ġthings": 1380,
      "Ġtop": 1381,
      "Ð¶": 1382,
      "Ġlight": 1383,
      "Ġanswer": 1384,
      "\",": 1385,
      "ets": 1386,
      "Ġet": 1387,
      "ted": 1388,
      "Ð¾Ð¹": 1389,
      "Ġincluding": 1390,
      "ator": 1391,
      "Ġtoo": 1392,
      "Ġì": 1393,
      "à¥Ģ": 1394,
      "Ġspe": 1395,
      "az": 1396,
      "ety": 1397,
      "ots": 1398,
      "ien": 1399,
      "Ġmeans": 1400,
      "thing": 1401,
      "×Ķ": 1402,
      "'ve": 1403,
      "Ġcustom": 1404,
      "Ġear": 1405,
      "Ġlevel": 1406,
      "Ġwrit": 1407,
      "ug": 1408,
      "Ġcontin": 1409,
      "Ġmet": 1410,
      "riend": 1411,
      "ĠWhat": 1412,
      "ives": 1413,
      "be": 1414,
      "mat": 1415,
      "Ð°Ð·": 1416,
      "Ġprogram": 1417,
      "aj": 1418,
      "Ġair": 1419,
      "ĠÐ³": 1420,
      "Ġrequire": 1421,
      "Ġgl": 1422,
      "Ġcour": 1423,
      "×¨": 1424,
      "Ġgreat": 1425,
      "ek": 1426,
      "Ġseem": 1427,
      "ertain": 1428,
      "Ġnon": 1429,
      "à¦°": 1430,
      "à¤ķ": 1431,
      "Ġcare": 1432,
      "ĠShe": 1433,
      "Ġelect": 1434,
      "Ġanal": 1435,
      "Ġalways": 1436,
      "ĠWhen": 1437,
      "Ġsense": 1438,
      "Ġline": 1439,
      "mathb": 1440,
      "10": 1441,
      "ript": 1442,
      "Ġsit": 1443,
      "ÑģÑı": 1444,
      "view": 1445,
      "ateg": 1446,
      "Ġtri": 1447,
      "ably": 1448,
      "ÐµÐ½Ð¸": 1449,
      "Ġpub": 1450,
      "ĠQ": 1451,
      "Ġpat": 1452,
      "à´¿": 1453,
      "uss": 1454,
      "Ġpossible": 1455,
      "here": 1456,
      "ants": 1457,
      "ling": 1458,
      "áĥĶáĥ": 1459,
      "Ġbook": 1460,
      "ĠBy": 1461,
      "Ġproper": 1462,
      "Ġkeep": 1463,
      "rop": 1464,
      "Ġer": 1465,
      "Ġoften": 1466,
      "ci": 1467,
      "Ġtem": 1468,
      "Î½": 1469,
      "ool": 1470,
      "Ġexperience": 1471,
      "au": 1472,
      "Ġreally": 1473,
      "000": 1474,
      "Ġcharacter": 1475,
      "ead": 1476,
      "ining": 1477,
      "Ġcent": 1478,
      "Ġcal": 1479,
      "ists": 1480,
      "Ġhealth": 1481,
      "ately": 1482,
      "Ġconnect": 1483,
      "Ġver": 1484,
      "Ġredu": 1485,
      "Ġinterest": 1486,
      "Ġsince": 1487,
      "Ã«": 1488,
      "ĠAr": 1489,
      "ĠThat": 1490,
      "Õ¸": 1491,
      "cul": 1492,
      "Ġbetter": 1493,
      "×ľ": 1494,
      "Ġplace": 1495,
      "Ġpur": 1496,
      "Ġask": 1497,
      "Ġsecond": 1498,
      "Ġmus": 1499,
      "Ġreturn": 1500,
      "à§ĩ": 1501,
      "Ġrest": 1502,
      "ique": 1503,
      "Ġprof": 1504,
      "inal": 1505,
      "Ġident": 1506,
      "Ġanother": 1507,
      "Ġspace": 1508,
      "Ġgoing": 1509,
      "Ġimpro": 1510,
      "Ġstand": 1511,
      "Ġobject": 1512,
      "ĠEx": 1513,
      "ĠThese": 1514,
      "ral": 1515,
      "ters": 1516,
      "Ġless": 1517,
      "Ã¶": 1518,
      "amp": 1519,
      "ron": 1520,
      "Ġmult": 1521,
      "Ġsure": 1522,
      "Ġopp": 1523,
      "ger": 1524,
      "ĠØ¨": 1525,
      "con": 1526,
      "ethod": 1527,
      "right": 1528,
      "Ð¾Ñģ": 1529,
      "):": 1530,
      "ĠÐµ": 1531,
      "Ġpotential": 1532,
      "Ġpri": 1533,
      "Ġrun": 1534,
      "Ð¾Ð½": 1535,
      "oh": 1536,
      "Ġsent": 1537,
      "à¤¯": 1538,
      "Ġmaking": 1539,
      "áĥĺáĥ": 1540,
      "Ġchange": 1541,
      "ĠÂ": 1542,
      "Ġiss": 1543,
      "áº": 1544,
      "Ġbuild": 1545,
      "ret": 1546,
      "Ġbeh": 1547,
      "Ñī": 1548,
      "à¯ģ": 1549,
      "iron": 1550,
      "not": 1551,
      "lish": 1552,
      "over": 1553,
      "Ġdirect": 1554,
      "ency": 1555,
      "pr": 1556,
      "Ø³": 1557,
      "Ġmag": 1558,
      "ocus": 1559,
      "Ġclear": 1560,
      "ĠOne": 1561,
      "Ġchang": 1562,
      "\".": 1563,
      "Ġ×Ķ": 1564,
      "Ġcome": 1565,
      "me": 1566,
      "Îµ": 1567,
      "Ġsum": 1568,
      "Ġvalue": 1569,
      "port": 1570,
      "Ġperform": 1571,
      "itions": 1572,
      "Ð¾Ð±": 1573,
      "Ġcorre": 1574,
      "Ġself": 1575,
      "Ġbelie": 1576,
      "à§į": 1577,
      "Ġbusiness": 1578,
      "Ã¼": 1579,
      "ĠÚ©": 1580,
      "Ġopen": 1581,
      "Ġcompany": 1582,
      "Ġfree": 1583,
      "Ġsignific": 1584,
      "angu": 1585,
      "ization": 1586,
      "of": 1587,
      "ware": 1588,
      "Ġtest": 1589,
      "ãĢ": 1590,
      "__": 1591,
      "Ġproject": 1592,
      "val": 1593,
      "Ġpract": 1594,
      "Ġgive": 1595,
      "oid": 1596,
      "Ġque": 1597,
      "Ġdepend": 1598,
      "Ġlim": 1599,
      "Ġgiven": 1600,
      "Ġinteg": 1601,
      "Ġable": 1602,
      "à®¿": 1603,
      "Ġprot": 1604,
      "ouse": 1605,
      "ble": 1606,
      "Ġoper": 1607,
      "Ġinvol": 1608,
      "ope": 1609,
      "Ð¸Ð½": 1610,
      "oss": 1611,
      "ĠÙĪ": 1612,
      "ggest": 1613,
      "Ġmethod": 1614,
      "ĠZ": 1615,
      "à¥ĭ": 1616,
      "ument": 1617,
      "Ġturn": 1618,
      "(\\": 1619,
      "Ġrelations": 1620,
      "app": 1621,
      "ared": 1622,
      "ples": 1623,
      "Ġcurrent": 1624,
      "Ġorder": 1625,
      "à¤²": 1626,
      "ains": 1627,
      "ext": 1628,
      "à¤Ĥ": 1629,
      "Ġà¤ķ": 1630,
      "ior": 1631,
      "Ð¸Ð»": 1632,
      "Ġgrow": 1633,
      "Õ¥": 1634,
      "Ġteam": 1635,
      "Ġsuggest": 1636,
      "Ġlast": 1637,
      "Ð°Ñģ": 1638,
      "Ġcontro": 1639,
      "Ġrese": 1640,
      "Ġpop": 1641,
      "ross": 1642,
      "Ġduring": 1643,
      "irc": 1644,
      "Ø¨": 1645,
      "tt": 1646,
      "sc": 1647,
      "ann": 1648,
      "ither": 1649,
      "Ġdoesn": 1650,
      "ĠCom": 1651,
      "Ġ}": 1652,
      "ilar": 1653,
      "Ġcheck": 1654,
      "Ġchild": 1655,
      "ĠÑį": 1656,
      "ĠDe": 1657,
      "Ġlo": 1658,
      "Ġmov": 1659,
      "Ġnever": 1660,
      "Õ¶": 1661,
      "Ġens": 1662,
      "Ġsocial": 1663,
      "cl": 1664,
      "Ġphys": 1665,
      "ĠÐ°": 1666,
      "ĠIs": 1667,
      "lease": 1668,
      "Ġindivid": 1669,
      "ploy": 1670,
      "Ġbas": 1671,
      "ĠCl": 1672,
      "Ġkey": 1673,
      "Ġcomplex": 1674,
      "Ġmind": 1675,
      "ring": 1676,
      "Ġhard": 1677,
      "ision": 1678,
      "Ġfocus": 1679,
      "Ġorgan": 1680,
      "Ġprev": 1681,
      "Ġhome": 1682,
      "Ġput": 1683,
      "à®ķ": 1684,
      "Ġstory": 1685,
      "ĠBe": 1686,
      "()": 1687,
      "ĠCon": 1688,
      "aterial": 1689,
      "Ġess": 1690,
      "Ġparticular": 1691,
      "$.": 1692,
      "Ð¾Ð¶": 1693,
      "Ġreason": 1694,
      "Ġprom": 1695,
      "Ġsal": 1696,
      "Ġorig": 1697,
      "ĠNew": 1698,
      "land": 1699,
      "ories": 1700,
      "Ġfollowing": 1701,
      "til": 1702,
      "Ġwr": 1703,
      "Ġgre": 1704,
      "atures": 1705,
      "ĠGod": 1706,
      "aut": 1707,
      "aps": 1708,
      "Ġsing": 1709,
      "Ġenv": 1710,
      "Ġtext": 1711,
      "ray": 1712,
      "Ġlangu": 1713,
      "Ġfil": 1714,
      "Ġdra": 1715,
      "pos": 1716,
      "Ġpost": 1717,
      "par": 1718,
      "Ġ200": 1719,
      "Ġdem": 1720,
      "Ġrelationship": 1721,
      "ĠÐĴ": 1722,
      "Ġmeas": 1723,
      "Ġcost": 1724,
      "Ġlarge": 1725,
      "ccess": 1726,
      "part": 1727,
      "Ġfriend": 1728,
      "ĠOn": 1729,
      "Ð°Ð´": 1730,
      "Ġben": 1731,
      "Ġenough": 1732,
      "à´¨": 1733,
      "Ð¸Ð¼": 1734,
      "Õ«": 1735,
      "Ġsour": 1736,
      "Ïģ": 1737,
      "aw": 1738,
      "Ġindividual": 1739,
      "Ġname": 1740,
      "ĠPl": 1741,
      "ĠEn": 1742,
      "lo": 1743,
      "ĠÄ": 1744,
      "und": 1745,
      "Ġcommon": 1746,
      "ole": 1747,
      "Ġlaw": 1748,
      "×ª": 1749,
      "apt": 1750,
      "×Ĳ": 1751,
      "Ġhist": 1752,
      "Ø§ÙĨ": 1753,
      "Ġaddition": 1754,
      "à¸²": 1755,
      "Ġcomb": 1756,
      "Ġfield": 1757,
      "lu": 1758,
      "Ġaccess": 1759,
      "Ġcr": 1760,
      "Ġsignificant": 1761,
      "Ġ12": 1762,
      "Ġrepres": 1763,
      "ĠX": 1764,
      "Ïĥ": 1765,
      "Ġaff": 1766,
      "Ġtoget": 1767,
      "Ġmove": 1768,
      "Ġtogether": 1769,
      "Ġbody": 1770,
      "Äģ": 1771,
      "Ġinclude": 1772,
      "Ġlove": 1773,
      "Ġthree": 1774,
      "Ġcertain": 1775,
      "Ġsound": 1776,
      "tain": 1777,
      "Ġvers": 1778,
      "Ø©": 1779,
      "Ġhuman": 1780,
      "à¦¿": 1781,
      "Ġimpact": 1782,
      "Ġgeneral": 1783,
      "àµģ": 1784,
      "atch": 1785,
      "Ġwhy": 1786,
      "Ġstre": 1787,
      "ital": 1788,
      "Ġbased": 1789,
      "Ġdri": 1790,
      "chool": 1791,
      "×ŀ": 1792,
      "ĠÐŁ": 1793,
      "Ġavail": 1794,
      "à®¤": 1795,
      "ĠNow": 1796,
      "----": 1797,
      "**:": 1798,
      "Ġsw": 1799,
      "Ġpa": 1800,
      "rm": 1801,
      "ton": 1802,
      "ished": 1803,
      "Ġwithin": 1804,
      "Ġprint": 1805,
      "Ð°ÑĤÑĮ": 1806,
      "ivers": 1807,
      "Ġabove": 1808,
      "ination": 1809,
      "light": 1810,
      "Ġword": 1811,
      "atural": 1812,
      "Ġmarket": 1813,
      "ats": 1814,
      "Ġstep": 1815,
      "Ġold": 1816,
      "ÐµÐº": 1817,
      "Ġoffer": 1818,
      "ially": 1819,
      "Ġlittle": 1820,
      "ames": 1821,
      "plic": 1822,
      "Ġenviron": 1823,
      "Ġchall": 1824,
      "ume": 1825,
      "ĠAll": 1826,
      "Ø¹": 1827,
      "ffic": 1828,
      "Ġstrong": 1829,
      "The": 1830,
      "verse": 1831,
      "ental": 1832,
      "ables": 1833,
      "Ġmom": 1834,
      "ÖĤ": 1835,
      "Ġmaterial": 1836,
      "ified": 1837,
      "ries": 1838,
      "Ġlot": 1839,
      "'d": 1840,
      "por": 1841,
      "Ġothers": 1842,
      "Ġsever": 1843,
      "à¤®": 1844,
      "$,": 1845,
      "Ġthing": 1846,
      "Ð¾Ð³Ð¾": 1847,
      "Ġrange": 1848,
      "Ġfood": 1849,
      "Ġ18": 1850,
      "ivity": 1851,
      "Ġuntil": 1852,
      "hor": 1853,
      "Ġdev": 1854,
      "Ġbro": 1855,
      "ills": 1856,
      "ĠWith": 1857,
      "ortun": 1858,
      "Ġdetail": 1859,
      "Ñĺ": 1860,
      "ĠPh": 1861,
      "ĠEng": 1862,
      "erc": 1863,
      "Ġlearn": 1864,
      "Ûģ": 1865,
      "Ġexpect": 1866,
      "aces": 1867,
      "Ġmot": 1868,
      "amb": 1869,
      "ember": 1870,
      "ĠSc": 1871,
      "Ġdiff": 1872,
      "Ġmulti": 1873,
      "Ġarea": 1874,
      "Ġlocal": 1875,
      "Ġcult": 1876,
      "man": 1877,
      "Ġu": 1878,
      "Ġcorrect": 1879,
      "Ġpersonal": 1880,
      "Ġwon": 1881,
      "urther": 1882,
      "Ġder": 1883,
      "Ġarg": 1884,
      "gr": 1885,
      "atic": 1886,
      "Ġjob": 1887,
      "Ġapplic": 1888,
      "Ġcourse": 1889,
      "Ġpast": 1890,
      "Ġpresent": 1891,
      "ÏĢ": 1892,
      "ctor": 1893,
      "ĠÑĩÑĤÐ¾": 1894,
      "sp": 1895,
      "Ġdeterm": 1896,
      "mb": 1897,
      "à´ķ": 1898,
      "Ġleast": 1899,
      "Ġexpress": 1900,
      "ush": 1901,
      "Ġstruct": 1902,
      "Ġseveral": 1903,
      "orn": 1904,
      "ane": 1905,
      ");": 1906,
      "Ġexist": 1907,
      "Ġview": 1908,
      "Ġknown": 1909,
      "ÑģÑĤÐ²": 1910,
      "Ġfr": 1911,
      "12": 1912,
      "Ġlikely": 1913,
      "Ġmodel": 1914,
      "Ġbit": 1915,
      "ĠNo": 1916,
      "wh": 1917,
      "ÛĴ": 1918,
      "Ġgame": 1919,
      "ÐµÐ¹": 1920,
      "Ġapproach": 1921,
      "ĠLet": 1922,
      ",\"": 1923,
      "Ġwords": 1924,
      "med": 1925,
      "Ġactually": 1926,
      "sh": 1927,
      "Ġenc": 1928,
      "Ġnext": 1929,
      "Ġside": 1930,
      "Ġocc": 1931,
      "rodu": 1932,
      "ĠOr": 1933,
      "raph": 1934,
      "ĠÐ¡": 1935,
      "fect": 1936,
      "Ġtell": 1937,
      "Ġpublic": 1938,
      "ÑĨÐ¸": 1939,
      "Å¡": 1940,
      "Ã§": 1941,
      "Ġleg": 1942,
      "Ġindust": 1943,
      "yth": 1944,
      "Ġhead": 1945,
      "à¤¸": 1946,
      "Ġagainst": 1947,
      "Ġneeds": 1948,
      "ration": 1949,
      "Ġdefin": 1950,
      "Ġtrue": 1951,
      "mathbb": 1952,
      "ai": 1953,
      "Ġidea": 1954,
      "Ġcap": 1955,
      "ĠÐ»": 1956,
      "Ġaway": 1957,
      "ĠÐĿ": 1958,
      "ror": 1959,
      "Ġresearch": 1960,
      "Ġcode": 1961,
      "ilities": 1962,
      "à¸²à¸": 1963,
      "19": 1964,
      "ready": 1965,
      "Ġimprove": 1966,
      "rist": 1967,
      "Ġsuccess": 1968,
      "Ġleft": 1969,
      "à´¤": 1970,
      "ours": 1971,
      "Ġavailable": 1972,
      "angle": 1973,
      "Ġsomeone": 1974,
      "Ġris": 1975,
      "ler": 1976,
      "Ġsitu": 1977,
      "ule": 1978,
      "ients": 1979,
      "for": 1980,
      "ards": 1981,
      "ape": 1982,
      "Ġevent": 1983,
      "Ġfamily": 1984,
      "Ġmakes": 1985,
      "ium": 1986,
      "Ġtimes": 1987,
      "Ġlanguage": 1988,
      "Ġlog": 1989,
      "Ġsimilar": 1990,
      "ĠUS": 1991,
      "Ġvarious": 1992,
      "Ġenvironment": 1993,
      "Ġkind": 1994,
      "Ġrather": 1995,
      "Ġ15": 1996,
      "Ġdescrib": 1997,
      "Ġnecess": 1998,
      "aster": 1999,
      "ances": 2000,
      "ÑĢÑĥ": 2001,
      "Ġcirc": 2002,
      ".,": 2003,
      "oint": 2004,
      "Ġcalled": 2005,
      "Ġpoints": 2006,
      "ires": 2007,
      "Ġalready": 2008,
      "ĠâĢĶ": 2009,
      "Ġnorm": 2010,
      "Ġcomplete": 2011,
      "ĠÐ¿Ð¾": 2012,
      "Ġsaf": 2013,
      "ÏĤ": 2014,
      "li": 2015,
      "ĠSe": 2016,
      "idd": 2017,
      "à´¾": 2018,
      "Ġdone": 2019,
      "ively": 2020,
      "Ġcalcul": 2021,
      "Ġgot": 2022,
      "ung": 2023,
      "ĠÐ¶": 2024,
      "ĠÑı": 2025,
      "ĠÐ¾ÑĤ": 2026,
      "Ġbeg": 2027,
      "Ġproducts": 2028,
      "Ġhig": 2029,
      "×ĳ": 2030,
      "osed": 2031,
      "ĠThen": 2032,
      "Ġvol": 2033,
      "oot": 2034,
      "Ġbecome": 2035,
      "Ġë": 2036,
      "ides": 2037,
      "Ġunique": 2038,
      "×©": 2039,
      "iction": 2040,
      "Ġspecial": 2041,
      "Ãł": 2042,
      "ery": 2043,
      "Ġcontrol": 2044,
      "Ġbreak": 2045,
      "Ġtool": 2046,
      "Ġemploy": 2047,
      "áĥĿ": 2048,
      "Ġbenef": 2049,
      "Ġprobably": 2050,
      "ox": 2051,
      "ze": 2052,
      "ised": 2053,
      "Ġfre": 2054,
      "nd": 2055,
      "Ġneg": 2056,
      "ĠYour": 2057,
      "na": 2058,
      "Ġhaving": 2059,
      "work": 2060,
      "Ġeither": 2061,
      "Ġâ": 2062,
      "urs": 2063,
      "ording": 2064,
      "Ġinvest": 2065,
      "icle": 2066,
      "Ġtot": 2067,
      "ired": 2068,
      "Ġmass": 2069,
      "Ġtype": 2070,
      "ĠSome": 2071,
      "Ġà¤¸": 2072,
      "net": 2073,
      "usion": 2074,
      "ĠMy": 2075,
      "Ð¸Ð²": 2076,
      "Ġpress": 2077,
      "Ġnatural": 2078,
      "Ġshort": 2079,
      "ìĿ": 2080,
      "Ð¾Ðº": 2081,
      "let": 2082,
      "face": 2083,
      "Ġbig": 2084,
      "Ġland": 2085,
      "ection": 2086,
      "wards": 2087,
      "Ġlow": 2088,
      "oci": 2089,
      "Ġnumbers": 2090,
      "Ġlooking": 2091,
      "ĠEm": 2092,
      "ĠAt": 2093,
      "Ġamount": 2094,
      "Ġfar": 2095,
      "agement": 2096,
      "Ġdue": 2097,
      "iting": 2098,
      "Ġfull": 2099,
      "ĠTr": 2100,
      "uck": 2101,
      "Ġrepresent": 2102,
      "ently": 2103,
      "set": 2104,
      "Ġwhether": 2105,
      "Ġelse": 2106,
      "Ġsimple": 2107,
      "ÑĢÐ°": 2108,
      "omet": 2109,
      "Ġtar": 2110,
      "Ġterms": 2111,
      "Ð°Ð½Ð¸": 2112,
      "Ġtravel": 2113,
      "arent": 2114,
      "Ġensure": 2115,
      "Ġdays": 2116,
      "Ġdevelopment": 2117,
      "ij": 2118,
      "Ġquestions": 2119,
      "Ġmeaning": 2120,
      "side": 2121,
      "Ġstudents": 2122,
      "ÐµÑģ": 2123,
      "cing": 2124,
      "Ġvalues": 2125,
      "=\\": 2126,
      "ĠDo": 2127,
      "à¤µ": 2128,
      "utes": 2129,
      "ÐµÐ³": 2130,
      "ference": 2131,
      "Ġworking": 2132,
      "istic": 2133,
      "ĠLe": 2134,
      "ply": 2135,
      "ird": 2136,
      "orts": 2137,
      "icult": 2138,
      "Ġpositive": 2139,
      "Ġ...": 2140,
      "yn": 2141,
      "Ġappear": 2142,
      "Ġpay": 2143,
      "yle": 2144,
      "ĠÐľ": 2145,
      "pped": 2146,
      "Ġfut": 2147,
      "Ġmeet": 2148,
      "Ġmonth": 2149,
      "lev": 2150,
      "Ġdiscuss": 2151,
      "by": 2152,
      "Ïħ": 2153,
      "ibility": 2154,
      "ms": 2155,
      "Ġ×ĳ": 2156,
      "Ġphot": 2157,
      "Î·": 2158,
      "Ġforce": 2159,
      "utions": 2160,
      "Ð¸Ðº": 2161,
      "Ġhappen": 2162,
      "Ġways": 2163,
      "oney": 2164,
      "ÙĤ": 2165,
      "Ġcannot": 2166,
      "ene": 2167,
      "aring": 2168,
      "arr": 2169,
      "ero": 2170,
      "iving": 2171,
      "ina": 2172,
      "à¥ģ": 2173,
      "action": 2174,
      "Ġdoing": 2175,
      "ĠBl": 2176,
      "à¦¨": 2177,
      "Ġcontent": 2178,
      "ips": 2179,
      "Ġtalk": 2180,
      "ength": 2181,
      "meric": 2182,
      "Ġey": 2183,
      "Õ¸ÖĤ": 2184,
      "ering": 2185,
      "Ġessential": 2186,
      "Ġobs": 2187,
      "idence": 2188,
      "ĠÐ¾Ð±": 2189,
      "ulation": 2190,
      "ended": 2191,
      "50": 2192,
      "Ġmil": 2193,
      "Ġ11": 2194,
      "Ġsat": 2195,
      "aging": 2196,
      "Ã£": 2197,
      "Ġmoment": 2198,
      ".)": 2199,
      "pro": 2200,
      "Ġaccount": 2201,
      "Ġfore": 2202,
      "Ġanything": 2203,
      "Ġunderstanding": 2204,
      "chie": 2205,
      "ĠÐļ": 2206,
      "Ġeasy": 2207,
      "ĠInd": 2208,
      "Ġetc": 2209,
      "Ġfac": 2210,
      "left": 2211,
      "Ġprofess": 2212,
      "ledge": 2213,
      "aim": 2214,
      "fer": 2215,
      "Ġwom": 2216,
      "oring": 2217,
      "Ġsize": 2218,
      "Ġperfect": 2219,
      "Ġsays": 2220,
      "Ġcond": 2221,
      "Ġ×Ĳ": 2222,
      "Ġroom": 2223,
      "ĠÐŀ": 2224,
      "Ð´Ð°": 2225,
      "Ġsingle": 2226,
      "ython": 2227,
      "met": 2228,
      "Ġwebs": 2229,
      "ges": 2230,
      "sel": 2231,
      "inc": 2232,
      "yl": 2233,
      "ysis": 2234,
      "Ġmusic": 2235,
      "imate": 2236,
      "Ġaction": 2237,
      "à¤¹": 2238,
      "af": 2239,
      "ĠÐ±Ñĭ": 2240,
      "ending": 2241,
      "asing": 2242,
      "Ġsystems": 2243,
      "ĠØª": 2244,
      "ules": 2245,
      "Ġonline": 2246,
      "ift": 2247,
      "vern": 2248,
      "Ġsoft": 2249,
      "rad": 2250,
      "yc": 2251,
      "Ġcontinu": 2252,
      "Ġ×ľ": 2253,
      "Ġinit": 2254,
      "Ġstudy": 2255,
      "Ġmess": 2256,
      "Ġrece": 2257,
      "Ġclose": 2258,
      "Ġcity": 2259,
      "ĠIm": 2260,
      "Ġconcept": 2261,
      "ÑĦ": 2262,
      "ER": 2263,
      "ĠChrist": 2264,
      "Ġmen": 2265,
      "Ġrad": 2266,
      "Ġemot": 2267,
      ",\\": 2268,
      "ival": 2269,
      "Ġge": 2270,
      "hemat": 2271,
      "Ġbra": 2272,
      "Ġmatter": 2273,
      "Ġchalleng": 2274,
      "Ġtheory": 2275,
      "Ġtarget": 2276,
      "Ġcaus": 2277,
      "Ġschool": 2278,
      "Ġdifficult": 2279,
      "Ġaud": 2280,
      "Ġcomput": 2281,
      "Ġseems": 2282,
      "Ġdam": 2283,
      "Ġstat": 2284,
      "ĠSu": 2285,
      "Ġpain": 2286,
      "Ġcommunity": 2287,
      "à®°": 2288,
      "Ġopportun": 2289,
      "Õ¡Õ¶": 2290,
      "osp": 2291,
      "back": 2292,
      "mit": 2293,
      "Ġcontext": 2294,
      "Ġnet": 2295,
      "iod": 2296,
      "Ġchanges": 2297,
      "Ġexact": 2298,
      "ĠÐ¢": 2299,
      "ived": 2300,
      "Ġsimply": 2301,
      "Ġspell": 2302,
      "Å¾": 2303,
      "Ġservice": 2304,
      "Ġuser": 2305,
      "rt": 2306,
      "11": 2307,
      "ĠÑģÑĤ": 2308,
      "ohn": 2309,
      "30": 2310,
      "Ġfurther": 2311,
      "à´¯": 2312,
      "Ġresour": 2313,
      "áĥĿáĥ": 2314,
      "Ġmention": 2315,
      "Ġmiss": 2316,
      "Ġseen": 2317,
      "ĠSince": 2318,
      "ott": 2319,
      "Ġalong": 2320,
      "min": 2321,
      "Ġmeasure": 2322,
      "ĠAmeric": 2323,
      "imal": 2324,
      "pec": 2325,
      "br": 2326,
      "à´°": 2327,
      "ury": 2328,
      "ĠFr": 2329,
      "Ġtemper": 2330,
      "ĠUse": 2331,
      "Ġfuture": 2332,
      "Ġmar": 2333,
      "Ġ×ŀ": 2334,
      "Ġworks": 2335,
      "Ð¾Ð·": 2336,
      "ĠCol": 2337,
      "Ġweek": 2338,
      "ogn": 2339,
      "Ġachie": 2340,
      "ĠYes": 2341,
      "Ġsentence": 2342,
      "ĠInst": 2343,
      "Ġresults": 2344,
      "Ġindic": 2345,
      "Ġoriginal": 2346,
      "Ã¥": 2347,
      "Ġthought": 2348,
      "ights": 2349,
      "Ø§Ø±": 2350,
      "Ġstrateg": 2351,
      "Ġservices": 2352,
      "illed": 2353,
      "pi": 2354,
      "à¸Ļ": 2355,
      "Ġitem": 2356,
      "ãģ®": 2357,
      "ude": 2358,
      "Ġrole": 2359,
      "ences": 2360,
      "à®Ł": 2361,
      "ĠØ¯": 2362,
      "avor": 2363,
      "ĠRes": 2364,
      "rap": 2365,
      "Ð»Ñı": 2366,
      "Ð¾Ð»ÑĮ": 2367,
      "joy": 2368,
      "Ġpie": 2369,
      "lying": 2370,
      "ĠØ§Ø": 2371,
      "mical": 2372,
      "Ġdistrib": 2373,
      "Ġtre": 2374,
      "ĠÐ·Ð°": 2375,
      "conom": 2376,
      "Ġflow": 2377,
      "Ġgovern": 2378,
      "ĠÐ²Ñĭ": 2379,
      "Ġnear": 2380,
      "lection": 2381,
      "Ġsuper": 2382,
      "×ł": 2383,
      "Ġmedia": 2384,
      "Ġquality": 2385,
      "ctions": 2386,
      "à®¾": 2387,
      "Ġposition": 2388,
      "Ġspeed": 2389,
      "Ġsolution": 2390,
      "Ġ30": 2391,
      "pping": 2392,
      "Ġ@": 2393,
      "Ġonce": 2394,
      "yd": 2395,
      "vert": 2396,
      "Ġbehav": 2397,
      "ga": 2398,
      ")\\": 2399,
      "Ġbelieve": 2400,
      "Ġrespect": 2401,
      "ding": 2402,
      "Ġaddress": 2403,
      "raft": 2404,
      "Ġdr": 2405,
      "ĠTe": 2406,
      "Ġstore": 2407,
      "Ġstay": 2408,
      "Ġund": 2409,
      "Ġquick": 2410,
      "abor": 2411,
      "Ġcommunic": 2412,
      "verage": 2413,
      "Ġattack": 2414,
      "ÐµÐ²": 2415,
      "Ġabs": 2416,
      "bra": 2417,
      "Ġinstead": 2418,
      "plement": 2419,
      "Ġcrit": 2420,
      "Ġcomes": 2421,
      "Ġhigher": 2422,
      "Ġmaj": 2423,
      "Ġ×©": 2424,
      "hing": 2425,
      "ension": 2426,
      "Ġà¤ª": 2427,
      "ump": 2428,
      "ĠPr": 2429,
      "Ġrespons": 2430,
      "Ġvide": 2431,
      "Ġdidn": 2432,
      "eed": 2433,
      "Ã°": 2434,
      "Ġsqu": 2435,
      "Ġsens": 2436,
      "Ġant": 2437,
      "Ġisn": 2438,
      "Ġability": 2439,
      "alf": 2440,
      "Ġsn": 2441,
      "Ġprovides": 2442,
      "Ð¸Ñģ": 2443,
      "ĠDes": 2444,
      "Ġwind": 2445,
      "Ġden": 2446,
      "Ð¾ÑģÑĤ": 2447,
      "da": 2448,
      "oon": 2449,
      "Ġelements": 2450,
      "izing": 2451,
      "Ġseries": 2452,
      "Ã£o": 2453,
      "Ġitself": 2454,
      "Ġtechnology": 2455,
      "Ġreview": 2456,
      "Ġtotal": 2457,
      "Ð¸ÑĤÑĮ": 2458,
      "Ġlink": 2459,
      "Ġtaking": 2460,
      "Ġrecomm": 2461,
      "Ø´": 2462,
      "ili": 2463,
      "Ùģ": 2464,
      "Ġhot": 2465,
      "text": 2466,
      "Ġdeg": 2467,
      "ĠEnglish": 2468,
      "Ġexperien": 2469,
      "cal": 2470,
      "att": 2471,
      "Ġareas": 2472,
      "nces": 2473,
      "place": 2474,
      "ym": 2475,
      "Ġut": 2476,
      "Ġ>": 2477,
      "Ġ100": 2478,
      "Ġground": 2479,
      "Ġlearning": 2480,
      "aves": 2481,
      "play": 2482,
      "Ġfall": 2483,
      "aken": 2484,
      "Ġindustry": 2485,
      "Ġavoid": 2486,
      "ÐµÐ±": 2487,
      "Ġstructure": 2488,
      "Ġ16": 2489,
      "Ġpaper": 2490,
      "Ġang": 2491,
      "duct": 2492,
      "Ġyourself": 2493,
      "Ġevents": 2494,
      "Ġwriting": 2495,
      "Ġphysical": 2496,
      "ĠCons": 2497,
      "))": 2498,
      "Ġdifference": 2499,
      "Ġskills": 2500,
      "Ġhouse": 2501,
      "ĠUs": 2502,
      "Ġnote": 2503,
      "Ġequation": 2504,
      "anced": 2505,
      "Ġeffic": 2506,
      "Ġred": 2507,
      "(\"": 2508,
      "ĠÐĶ": 2509,
      "lex": 2510,
      "Ġincrease": 2511,
      "Ġtrying": 2512,
      "ask": 2513,
      "ney": 2514,
      "ÐµÐ·": 2515,
      "irt": 2516,
      "elt": 2517,
      "Ġtakes": 2518,
      "Ġexc": 2519,
      "Ð¸Ñĩ": 2520,
      "most": 2521,
      "Î»": 2522,
      "Ġquant": 2523,
      "Ġbal": 2524,
      "atter": 2525,
      "ream": 2526,
      "ĠÃ©": 2527,
      "chan": 2528,
      "Ġinflu": 2529,
      "Ġ14": 2530,
      "Ġauthor": 2531,
      "ĠFrom": 2532,
      "ids": 2533,
      "ÑĤÐ¾ÑĢ": 2534,
      "Ġconstant": 2535,
      "ement": 2536,
      "Ġwar": 2537,
      "Ġbegin": 2538,
      "Ġfeatures": 2539,
      "Ġfit": 2540,
      "ĠGr": 2541,
      "Ġanalysis": 2542,
      "Ġcoll": 2543,
      "ibr": 2544,
      "Ġwa": 2545,
      "Ġhold": 2546,
      "Ġgetting": 2547,
      "à¦¯": 2548,
      "dot": 2549,
      "oms": 2550,
      "Ġhope": 2551,
      "15": 2552,
      "Ġsubject": 2553,
      "use": 2554,
      "Ġusually": 2555,
      "iet": 2556,
      "Ġwebsite": 2557,
      "ĠÏĦ": 2558,
      "Ġpred": 2559,
      "Ġfram": 2560,
      "Ġsearch": 2561,
      "Ġquite": 2562,
      "isc": 2563,
      "Ġexplore": 2564,
      "like": 2565,
      "Ġinput": 2566,
      "Ġperiod": 2567,
      "×¢": 2568,
      "Ġknowledge": 2569,
      "Ġfour": 2570,
      "Ġbar": 2571,
      "}}": 2572,
      "Ġpattern": 2573,
      "Ð°Ð¹": 2574,
      "equ": 2575,
      "ĠJohn": 2576,
      "Ġbeaut": 2577,
      "Ġentire": 2578,
      "ĠOver": 2579,
      "omes": 2580,
      "pha": 2581,
      "Ġactiv": 2582,
      "Ġexamples": 2583,
      "Ġversion": 2584,
      "vent": 2585,
      "ĠMay": 2586,
      "Ð¸Ñħ": 2587,
      "itch": 2588,
      "Ġvo": 2589,
      "Ġidentify": 2590,
      "rix": 2591,
      "ho": 2592,
      "Ġhol": 2593,
      "Ġhours": 2594,
      "ÑĥÐ´": 2595,
      "',": 2596,
      "ĠÐ¸Ð·": 2597,
      "Ġsource": 2598,
      "Ġchildren": 2599,
      "Äį": 2600,
      "selves": 2601,
      "Ġeduc": 2602,
      "Ġhistory": 2603,
      "Ġespec": 2604,
      "ÑĥÑĤ": 2605,
      "Ġshare": 2606,
      "ators": 2607,
      "Ġum": 2608,
      "Ġcut": 2609,
      "ĠMan": 2610,
      "Ġheart": 2611,
      "Ġnight": 2612,
      "ĠNot": 2613,
      "ĠQu": 2614,
      "Ġmathemat": 2615,
      "×ĵ": 2616,
      "ĠChe": 2617,
      "oura": 2618,
      "go": 2619,
      "Ġacross": 2620,
      "Ġface": 2621,
      "Ġperformance": 2622,
      "ged": 2623,
      "Ġissues": 2624,
      "Ġbring": 2625,
      "Ġreduce": 2626,
      "×Ļ×Ŀ": 2627,
      "Ġwhole": 2628,
      "sum": 2629,
      "Ġdie": 2630,
      "str": 2631,
      "Ġcontain": 2632,
      "Ġdiv": 2633,
      ".âĢĿ": 2634,
      "phi": 2635,
      "ising": 2636,
      "Ġmultiple": 2637,
      "just": 2638,
      "Ð¾Ð¿": 2639,
      "aving": 2640,
      "Ġtrack": 2641,
      "isf": 2642,
      "Ġsituation": 2643,
      "Ġsurface": 2644,
      "Ġ)": 2645,
      "ada": 2646,
      "Ġ$(": 2647,
      "Ġdeep": 2648,
      "Ġter": 2649,
      "Ġmax": 2650,
      "ĠÄĳ": 2651,
      "ming": 2652,
      "iment": 2653,
      "}^": 2654,
      "ĠWhile": 2655,
      "Ġdest": 2656,
      "ament": 2657,
      "ØŃ": 2658,
      "ograph": 2659,
      "Ġvi": 2660,
      "Ġmajor": 2661,
      "Ġà¤®": 2662,
      "Ġallows": 2663,
      "Ġ×ķ": 2664,
      "Ġeconom": 2665,
      "nal": 2666,
      "Ġdig": 2667,
      "Ġ--": 2668,
      "Ġever": 2669,
      "Ġassum": 2670,
      "Ġsepar": 2671,
      "epend": 2672,
      "Ã³n": 2673,
      "uk": 2674,
      "ster": 2675,
      "Ġtransform": 2676,
      "Ġeverything": 2677,
      "Ġ17": 2678,
      "ption": 2679,
      "Ġbound": 2680,
      "Ġideas": 2681,
      "Ġissue": 2682,
      "reen": 2683,
      "ĠFin": 2684,
      "Ġtreat": 2685,
      "Ġ13": 2686,
      "ians": 2687,
      "ches": 2688,
      "Ġcause": 2689,
      "Ġbi": 2690,
      "ana": 2691,
      "Ġmor": 2692,
      "ones": 2693,
      "Ġcharacters": 2694,
      "Ġelement": 2695,
      "×ķ×ª": 2696,
      "Ġlower": 2697,
      "Ġuses": 2698,
      "imum": 2699,
      "ĠFirst": 2700,
      "Ġwide": 2701,
      "Ġjour": 2702,
      "haps": 2703,
      "pper": 2704,
      "à¤¦": 2705,
      "Ġmoney": 2706,
      "ĠApp": 2707,
      "Ġenjoy": 2708,
      "ows": 2709,
      "ises": 2710,
      "Ġimplement": 2711,
      "Ġanaly": 2712,
      "ÅŁ": 2713,
      "ĠGo": 2714,
      "ha": 2715,
      "Ġcook": 2716,
      "ification": 2717,
      "ditional": 2718,
      "ilt": 2719,
      "Ġneeded": 2720,
      "Ġstandard": 2721,
      "la": 2722,
      "Ġphr": 2723,
      "Ġdu": 2724,
      "ands": 2725,
      "hat": 2726,
      "Ġdeal": 2727,
      "ÐµÐ»ÑĮ": 2728,
      "fully": 2729,
      "Ġheat": 2730,
      "Ġoptions": 2731,
      "ĠØ³": 2732,
      "Ġblack": 2733,
      "ä¸": 2734,
      "Ġnature": 2735,
      "ĠMar": 2736,
      "Ġgives": 2737,
      "uff": 2738,
      "augh": 2739,
      "bo": 2740,
      "Ġspeak": 2741,
      "Î¼": 2742,
      "Ġaffect": 2743,
      "Ġfriends": 2744,
      "Ġfile": 2745,
      "het": 2746,
      "mu": 2747,
      "Ġyet": 2748,
      "uf": 2749,
      "ĠComm": 2750,
      "ula": 2751,
      "à¸£": 2752,
      "Îº": 2753,
      "à¹Ī": 2754,
      "Ġlater": 2755,
      "Ġcontrib": 2756,
      "//": 2757,
      "ÒĽ": 2758,
      "Ġste": 2759,
      "ĠPer": 2760,
      "Ġfail": 2761,
      "×Ĺ": 2762,
      "Ġdou": 2763,
      "ĠÑħ": 2764,
      "Ð¸Ð´": 2765,
      "lished": 2766,
      "Ġprec": 2767,
      "Ġaccept": 2768,
      "Ġchemical": 2769,
      "Ġremain": 2770,
      "ĠCan": 2771,
      "à´Ł": 2772,
      "Ð°Ð¿": 2773,
      "olution": 2774,
      "Ġpath": 2775,
      "à®©": 2776,
      "Ġcases": 2777,
      "Ġclean": 2778,
      "à¥¤": 2779,
      "Ġinteract": 2780,
      "ties": 2781,
      "Äĥ": 2782,
      "Ġgen": 2783,
      "Ġreport": 2784,
      "Ġwin": 2785,
      "ological": 2786,
      "Ġhelps": 2787,
      "book": 2788,
      "elta": 2789,
      "à®®": 2790,
      "Ø§ÛĮ": 2791,
      "Ġcustomers": 2792,
      "Ġlive": 2793,
      "Ġcreating": 2794,
      "Ġunc": 2795,
      "Ġsun": 2796,
      "ĠEar": 2797,
      "Ġconditions": 2798,
      "Ġengine": 2799,
      "à¸Ń": 2800,
      "Ġresources": 2801,
      "Ð¸Ð¹": 2802,
      "ÑıÑĤ": 2803,
      "ription": 2804,
      "urity": 2805,
      "à¤ª": 2806,
      "à®²": 2807,
      "Ġnecessary": 2808,
      "Ġminutes": 2809,
      "pose": 2810,
      "Ð°Ð±": 2811,
      "Ġcamp": 2812,
      "oph": 2813,
      "Ġestab": 2814,
      "16": 2815,
      "Ġlay": 2816,
      "Ġconcern": 2817,
      "Ġir": 2818,
      "ÐºÐ°": 2819,
      "Ġpage": 2820,
      "Ð°Ð¶": 2821,
      "Ġmaintain": 2822,
      "Ġreach": 2823,
      "Ð½Ðµ": 2824,
      "Ġtraining": 2825,
      "Ġnothing": 2826,
      "though": 2827,
      "Ġclaim": 2828,
      "Ġlimit": 2829,
      "Ġbelow": 2830,
      "outh": 2831,
      "Ġcountry": 2832,
      "ĠÙģ": 2833,
      "âĢ¦": 2834,
      "Ġgrowth": 2835,
      "atform": 2836,
      "Ġà¤¹": 2837,
      "Ø¬": 2838,
      "eta": 2839,
      "Ġprim": 2840,
      "ĠÐĲ": 2841,
      "onse": 2842,
      "Ùĥ": 2843,
      "Î¯": 2844,
      "Ġchoice": 2845,
      "ression": 2846,
      "ĠÐ¯": 2847,
      "Ġtoday": 2848,
      "eter": 2849,
      "Ġ!": 2850,
      "ĠAnother": 2851,
      "une": 2852,
      "14": 2853,
      "imately": 2854,
      "ustain": 2855,
      "partial": 2856,
      "ĠCont": 2857,
      "Ġrelated": 2858,
      "Ġexcept": 2859,
      "iversity": 2860,
      "wise": 2861,
      "Ġlength": 2862,
      "à¦¤": 2863,
      "Ġdom": 2864,
      "Ġregular": 2865,
      "Ġcustomer": 2866,
      "Ġwalk": 2867,
      "Ġfix": 2868,
      "ruction": 2869,
      "18": 2870,
      "Ġpressure": 2871,
      "ĠÑģÐ»": 2872,
      "Ġinn": 2873,
      "ØĮ": 2874,
      "ĠAfter": 2875,
      "Ġchoose": 2876,
      "ĠMe": 2877,
      "Ġport": 2878,
      "13": 2879,
      "Ġcolor": 2880,
      "Ġdetails": 2881,
      "Ġfeed": 2882,
      "iques": 2883,
      "Ġnormal": 2884,
      "Ð¸ÑĢ": 2885,
      "Ġfinal": 2886,
      "Ġespecially": 2887,
      "Ġdat": 2888,
      "bit": 2889,
      "Ġadditional": 2890,
      "Ġbuilding": 2891,
      "sequ": 2892,
      "alpha": 2893,
      "Ġdoc": 2894,
      "Ġfactors": 2895,
      "come": 2896,
      "Ġpopular": 2897,
      "oor": 2898,
      "}(": 2899,
      "rew": 2900,
      "Ġprior": 2901,
      "Ġmechan": 2902,
      "irl": 2903,
      "Ġrequired": 2904,
      "illion": 2905,
      "Ġexplain": 2906,
      "íķ": 2907,
      "Ġbad": 2908,
      "Ġrules": 2909,
      "ny": 2910,
      "iously": 2911,
      "Ġconsid": 2912,
      "fort": 2913,
      "where": 2914,
      "Ġtemperature": 2915,
      "ample": 2916,
      "ĠÑģÐ²": 2917,
      "atively": 2918,
      "Ġvisit": 2919,
      "Ġsym": 2920,
      "ĠâĢĺ": 2921,
      "Ġupd": 2922,
      "Ġprotect": 2923,
      "oud": 2924,
      "Ġimm": 2925,
      "cent": 2926,
      "Ġstra": 2927,
      "Ġstates": 2928,
      "unch": 2929,
      "Ġproblems": 2930,
      "Ġheav": 2931,
      "ĠØ¹": 2932,
      "âĢĶ": 2933,
      "Ġrisk": 2934,
      "Ġlonger": 2935,
      "Ġpara": 2936,
      "ÖĢÕ": 2937,
      "Ġfrequ": 2938,
      "Õ¸ÖĤÕ": 2939,
      "Ġsatisf": 2940,
      ")^": 2941,
      "Ãº": 2942,
      "à®ª": 2943,
      "Ġda": 2944,
      "Ġmach": 2945,
      "In": 2946,
      "Ġintrodu": 2947,
      "Ġpret": 2948,
      "Ġstreng": 2949,
      "pre": 2950,
      "medi": 2951,
      "Ġamong": 2952,
      "ara": 2953,
      "ords": 2954,
      "Ġimage": 2955,
      "Ġcontact": 2956,
      "Ġassoci": 2957,
      "dd": 2958,
      "ites": 2959,
      "gen": 2960,
      "Ġpack": 2961,
      "Ġyoung": 2962,
      "Ġrate": 2963,
      "Ġann": 2964,
      "à¹Ģ": 2965,
      "sq": 2966,
      "Ġstarted": 2967,
      "ĠAlso": 2968,
      "://": 2969,
      "orth": 2970,
      "ĠMore": 2971,
      "Ġfig": 2972,
      "Ġcompon": 2973,
      "ĠÙĨ": 2974,
      "ĠTra": 2975,
      "inary": 2976,
      "Ġeffective": 2977,
      "son": 2978,
      "resh": 2979,
      "Ġsequ": 2980,
      "Ġ25": 2981,
      "à¦ķ": 2982,
      "Ġwrite": 2983,
      "time": 2984,
      "Ġproduction": 2985,
      "orld": 2986,
      "Ú¯": 2987,
      "_{\\": 2988,
      "empt": 2989,
      "ĠNote": 2990,
      "ĠRem": 2991,
      "levant": 2992,
      "ãĢģ": 2993,
      "Ġdamage": 2994,
      "Ġconvers": 2995,
      "Ġtend": 2996,
      "ops": 2997,
      "vec": 2998,
      "Ġworth": 2999,
      "Ġmembers": 3000,
      "Ġoutside": 3001,
      "ĠÐºÐ°Ðº": 3002,
      "Ð¸Ð·": 3003,
      "Ġgroups": 3004,
      "Ġtable": 3005,
      "25": 3006,
      "ison": 3007,
      "ditionally": 3008,
      "ission": 3009,
      "ÐµÑĪ": 3010,
      "Ġrefer": 3011,
      "ying": 3012,
      "Ġcompet": 3013,
      "Ġplatform": 3014,
      "Õ¥Õ": 3015,
      "Ġslow": 3016,
      "ele": 3017,
      "Ġball": 3018,
      "Ġweight": 3019,
      "Ġconsist": 3020,
      "Ġindividuals": 3021,
      "mathbf": 3022,
      "ĠÑįÑĤÐ¾": 3023,
      "ched": 3024,
      "ÐµÑģÑĤ": 3025,
      "Ġoil": 3026,
      "Ġcame": 3027,
      "ley": 3028,
      "Ð¾Ñĩ": 3029,
      "Ġrecommend": 3030,
      "ored": 3031,
      "Ġwrong": 3032,
      "Ġgovernment": 3033,
      "itude": 3034,
      "Ġstatement": 3035,
      "ĠÂ«": 3036,
      "Ġcommit": 3037,
      "ields": 3038,
      "Ġ24": 3039,
      "^{-": 3040,
      "Ġinstall": 3041,
      "aries": 3042,
      "ĠÐºÐ¾": 3043,
      "Ġpractice": 3044,
      "ĠÑĤÐ°Ðº": 3045,
      "Ġrev": 3046,
      "\")": 3047,
      "Ġful": 3048,
      "Ġmix": 3049,
      "Ġones": 3050,
      "Ġequal": 3051,
      "Ġoffers": 3052,
      "Ġusers": 3053,
      "ado": 3054,
      "Ġcard": 3055,
      "ees": 3056,
      "ĠCo": 3057,
      "Ġpriv": 3058,
      "Ġtypes": 3059,
      "Ġthemselves": 3060,
      "Ġdesigned": 3061,
      "Ġnegative": 3062,
      "Ġarticle": 3063,
      "Ġinside": 3064,
      "ON": 3065,
      "Ġna": 3066,
      "Ġ//": 3067,
      "Ġchallenges": 3068,
      "Ġdim": 3069,
      "iety": 3070,
      "Ġincor": 3071,
      "Ãª": 3072,
      "ĠÐł": 3073,
      "ica": 3074,
      "ese": 3075,
      "ka": 3076,
      "IN": 3077,
      "ĠCar": 3078,
      "ĠOur": 3079,
      "Ġjo": 3080,
      "Ġdark": 3081,
      "ĠÐĺ": 3082,
      "arily": 3083,
      "Ġwritten": 3084,
      "itor": 3085,
      "lation": 3086,
      "iver": 3087,
      "Ġconsidered": 3088,
      "Ġsustain": 3089,
      "Ġmaterials": 3090,
      "Ġearly": 3091,
      "Ġknew": 3092,
      "ging": 3093,
      "×Ľ": 3094,
      "Ġleave": 3095,
      "Ġargument": 3096,
      "Ġcondition": 3097,
      "ĠAb": 3098,
      "Ġmanagement": 3099,
      "ĠKe": 3100,
      "Ġhalf": 3101,
      "99": 3102,
      "che": 3103,
      "irit": 3104,
      "pri": 3105,
      "Ġbehavior": 3106,
      "Ġdirection": 3107,
      "Ġclos": 3108,
      "Ùİ": 3109,
      "Ġobserv": 3110,
      "load": 3111,
      "Ġprevent": 3112,
      "à¸ģ": 3113,
      "Ġhtt": 3114,
      "Ġstring": 3115,
      "ĠJes": 3116,
      "Ġdistance": 3117,
      "fficient": 3118,
      "à¦²": 3119,
      "opy": 3120,
      "Ñĳ": 3121,
      "Ġtowards": 3122,
      "umb": 3123,
      "ground": 3124,
      "my": 3125,
      "Ġdraw": 3126,
      "Ġpolit": 3127,
      "aff": 3128,
      "£áĥ": 3129,
      "andom": 3130,
      "×§": 3131,
      "Ġeffects": 3132,
      "acy": 3133,
      "17": 3134,
      "arrow": 3135,
      "AT": 3136,
      "ĠFe": 3137,
      "Ġtaken": 3138,
      "_\\": 3139,
      "ony": 3140,
      "Ġrecogn": 3141,
      "Ġcell": 3142,
      "Ġwall": 3143,
      "Ð°ÐµÑĤ": 3144,
      "àµĨ": 3145,
      "Ġincludes": 3146,
      "Ġill": 3147,
      "Ġeveryone": 3148,
      "Ġpict": 3149,
      "Ġbenefits": 3150,
      "Ġgoals": 3151,
      "resp": 3152,
      "uth": 3153,
      "Ġsort": 3154,
      "ĠEu": 3155,
      "edia": 3156,
      "Ġemail": 3157,
      "Ġalmost": 3158,
      "ĠÐ²Ñģ": 3159,
      "Ġmodern": 3160,
      "Ġvideo": 3161,
      "Ġfire": 3162,
      "Ġzero": 3163,
      "mathrm": 3164,
      "Ø§Ùħ": 3165,
      "mbol": 3166,
      "Ġcou": 3167,
      "ÐµÐ½ÑĤ": 3168,
      "St": 3169,
      "Ġinfin": 3170,
      "Ġbase": 3171,
      "==": 3172,
      "Ġfund": 3173,
      "Ġalg": 3174,
      "sqrt": 3175,
      "ambda": 3176,
      "ager": 3177,
      "Ġcateg": 3178,
      "Ġhowever": 3179,
      "Ġeasily": 3180,
      "Ġgain": 3181,
      "Ġoverall": 3182,
      "à´²": 3183,
      "Ġexactly": 3184,
      "ĠAdditionally": 3185,
      "Ġroll": 3186,
      "Ġoffic": 3187,
      "Ġbox": 3188,
      "Ġtools": 3189,
      "Ġcover": 3190,
      "ĠÙĦ": 3191,
      "Ġstru": 3192,
      "áĥĺáĥ¡": 3193,
      "astic": 3194,
      "ĠTherefore": 3195,
      "ux": 3196,
      "co": 3197,
      "ÏĮ": 3198,
      "Â»": 3199,
      "Ġshows": 3200,
      "Ġfa": 3201,
      "Ġage": 3202,
      "Ġfunctions": 3203,
      "ÐºÐ¸": 3204,
      "Ġproperty": 3205,
      "Ġproviding": 3206,
      "ured": 3207,
      "Ġresponse": 3208,
      "Ġtou": 3209,
      "Ġê": 3210,
      "Ġregard": 3211,
      "Ġpow": 3212,
      "ĠJust": 3213,
      "Ġil": 3214,
      "ĠRo": 3215,
      "×¤": 3216,
      "ister": 3217,
      "orem": 3218,
      "ĠEarth": 3219,
      "ĠEl": 3220,
      "Ġdecision": 3221,
      "ĠÑĦ": 3222,
      "ued": 3223,
      "Ġextra": 3224,
      "erson": 3225,
      "ĠReg": 3226,
      "oved": 3227,
      "Ð¸ÑĤÐµ": 3228,
      "ners": 3229,
      "rast": 3230,
      "Ø²": 3231,
      "Ġdeath": 3232,
      "Ġprovided": 3233,
      "Ġcompan": 3234,
      "egin": 3235,
      "Ġeyes": 3236,
      "iven": 3237,
      "Ġimag": 3238,
      "Ø§Øª": 3239,
      "Ġapply": 3240,
      "elling": 3241,
      "Ġsem": 3242,
      "Ġ50": 3243,
      "Ġsoftware": 3244,
      "Ġcontinue": 3245,
      "Ġrelationships": 3246,
      "Ġcru": 3247,
      "ounter": 3248,
      "à´Ĥ": 3249,
      "Ġsite": 3250,
      "Ġleading": 3251,
      "ww": 3252,
      "head": 3253,
      "Ġpick": 3254,
      "aches": 3255,
      "Ġliving": 3256,
      "Ġvariety": 3257,
      "iation": 3258,
      "ĠSim": 3259,
      "Ġaspect": 3260,
      "Î¿Ïħ": 3261,
      "ĠAdd": 3262,
      "reme": 3263,
      "Ġachieve": 3264,
      "Ġactivities": 3265,
      "iful": 3266,
      "Ġupon": 3267,
      "ĠJesus": 3268,
      "Ġpolic": 3269,
      "ja": 3270,
      "Ġaverage": 3271,
      "Ġcomment": 3272,
      "Ġparent": 3273,
      "oll": 3274,
      "Ġson": 3275,
      "Ġaltern": 3276,
      "Ġpoly": 3277,
      "Ġlevels": 3278,
      "Ġdirectly": 3279,
      "\":": 3280,
      "Ġpretty": 3281,
      "ius": 3282,
      "hers": 3283,
      "Ġsle": 3284,
      "Ġbehind": 3285,
      "ĠAI": 3286,
      "à¤ļ": 3287,
      "izes": 3288,
      "AR": 3289,
      "Ġaccording": 3290,
      "Ġtook": 3291,
      "22": 3292,
      "Ġstyle": 3293,
      "Ġparts": 3294,
      "Ġindepend": 3295,
      "ĠÐĳ": 3296,
      "Ġaudience": 3297,
      "eral": 3298,
      "Ġsus": 3299,
      "Ġrule": 3300,
      "Ġautom": 3301,
      "ĠCre": 3302,
      "à¯Ī": 3303,
      "Ġappl": 3304,
      "-\\": 3305,
      "gs": 3306,
      "Úº": 3307,
      "ĠRep": 3308,
      "Ġsafe": 3309,
      "Ġcreated": 3310,
      "ÐµÐ½Ð¸Ñı": 3311,
      "à¤Ĺ": 3312,
      "à¹ī": 3313,
      "alu": 3314,
      "ĠÐ¾Ð´": 3315,
      "Ġevidence": 3316,
      "ĠGu": 3317,
      "Ġsteps": 3318,
      "ensive": 3319,
      "Ġoption": 3320,
      "Ġharm": 3321,
      "Ġbir": 3322,
      "Ġfront": 3323,
      "que": 3324,
      "erve": 3325,
      "Ġsubst": 3326,
      "Ä«": 3327,
      "ĠPre": 3328,
      "Ġexperiences": 3329,
      "Ġrelevant": 3330,
      "Ã½": 3331,
      "ystem": 3332,
      "new": 3333,
      "uly": 3334,
      "Ġpan": 3335,
      "ĠDon": 3336,
      "urch": 3337,
      "Ġprice": 3338,
      "Ġtechniques": 3339,
      "ĠAcc": 3340,
      "ĠConsider": 3341,
      "ÐµÑĩ": 3342,
      "log": 3343,
      "Ġprobability": 3344,
      "Ġadjust": 3345,
      "Ġconnection": 3346,
      "Ġhor": 3347,
      "Ġdistribution": 3348,
      "uments": 3349,
      "Ġfeet": 3350,
      "Ġgoes": 3351,
      "Ġsolutions": 3352,
      "Ġstrength": 3353,
      "ÐºÐ¾": 3354,
      "Ġrout": 3355,
      "anger": 3356,
      "ÑĥÑĩ": 3357,
      "ores": 3358,
      "iÃ³n": 3359,
      "Ġmethods": 3360,
      "ura": 3361,
      "à¦¼": 3362,
      "ãģ§": 3363,
      "ĠÑįÑĤ": 3364,
      "21": 3365,
      "anks": 3366,
      "irm": 3367,
      "Î¬": 3368,
      "ĠHis": 3369,
      "amma": 3370,
      "Ġcapt": 3371,
      "cell": 3372,
      "aur": 3373,
      "Ġje": 3374,
      "times": 3375,
      "--------": 3376,
      "Ġstress": 3377,
      "lor": 3378,
      "à®¯": 3379,
      "à¥Ī": 3380,
      "Ġreflect": 3381,
      "Ġlinear": 3382,
      "aged": 3383,
      "Ġproperties": 3384,
      "ĠCent": 3385,
      "áĥĶáĥĳ": 3386,
      "Ġpowerful": 3387,
      "Ġmentioned": 3388,
      "Ġvalid": 3389,
      "Ġfeeling": 3390,
      "Ġrequires": 3391,
      "à®±": 3392,
      "Ġfinanc": 3393,
      "Ġpair": 3394,
      "Ġrot": 3395,
      "ĠComp": 3396,
      "Ġadded": 3397,
      "ried": 3398,
      "ki": 3399,
      "Ġprin": 3400,
      "ĠÐ¿Ð¾Ð´": 3401,
      "ided": 3402,
      "Ġgrav": 3403,
      "!!": 3404,
      "Ġdefinition": 3405,
      "à¸±": 3406,
      "itation": 3407,
      "overed": 3408,
      "Ġremember": 3409,
      "}{\\": 3410,
      "Æ°": 3411,
      "Ġfelt": 3412,
      "Ġcat": 3413,
      "Ġseason": 3414,
      "Ġgas": 3415,
      "ĠCal": 3416,
      "ãĥ¼": 3417,
      "Ð»Ð°": 3418,
      "Ġmessage": 3419,
      "Ġtraditional": 3420,
      "Ġsmo": 3421,
      "ãģĦ": 3422,
      "ĠBr": 3423,
      "____": 3424,
      "Ġmental": 3425,
      "iverse": 3426,
      "ĠPlease": 3427,
      "OR": 3428,
      "Ġfoot": 3429,
      "rope": 3430,
      "atives": 3431,
      "Ġweb": 3432,
      "Ġinstance": 3433,
      "à¦¬": 3434,
      "Ġmis": 3435,
      "Ġsumm": 3436,
      "ĠAmerican": 3437,
      "à®³": 3438,
      "based": 3439,
      "Ġstop": 3440,
      "ES": 3441,
      "istance": 3442,
      "uit": 3443,
      "Ġinvolves": 3444,
      "ĠRec": 3445,
      "Ġselect": 3446,
      "ÑĢÐ¸": 3447,
      "fty": 3448,
      "Ġoccur": 3449,
      "à¸ĩ": 3450,
      "ĠÑĢÐ°Ð·": 3451,
      "ferences": 3452,
      "Ġapplication": 3453,
      "uel": 3454,
      "Ġrequest": 3455,
      "Ġexerc": 3456,
      "Ġord": 3457,
      ")=": 3458,
      "Ġuseful": 3459,
      "Ġmonths": 3460,
      "?\"": 3461,
      "mathcal": 3462,
      "ÄĹ": 3463,
      "ÑĬ": 3464,
      "olute": 3465,
      "kt": 3466,
      "iddle": 3467,
      "aling": 3468,
      "ĠAm": 3469,
      "Ġtransport": 3470,
      "ĠAg": 3471,
      "Ġencoura": 3472,
      "rown": 3473,
      "pe": 3474,
      "Ġcup": 3475,
      "itely": 3476,
      "Ġlarger": 3477,
      "Ġplayers": 3478,
      "Ð½Ð¾ÑģÑĤ": 3479,
      "ino": 3480,
      "aced": 3481,
      "ato": 3482,
      "Ġelectric": 3483,
      "Ġvector": 3484,
      "Ġquickly": 3485,
      "Ġparticularly": 3486,
      "Ġbecomes": 3487,
      "Ġog": 3488,
      "rict": 3489,
      "Ġsaying": 3490,
      "ĠTw": 3491,
      "ãĢĤ": 3492,
      "ãģ«": 3493,
      "Ġmarketing": 3494,
      "enn": 3495,
      "Ġvisual": 3496,
      "Ġlocation": 3497,
      "Ġapplications": 3498,
      "now": 3499,
      "Ġlab": 3500,
      "Ġconsum": 3501,
      "ĠOnce": 3502,
      "Ġfast": 3503,
      "ĠLa": 3504,
      "Ġgenerally": 3505,
      "zy": 3506,
      "Ġcomfort": 3507,
      "Ġstarting": 3508,
      "Ġthinking": 3509,
      "isions": 3510,
      "Ð°Ð»ÑĮ": 3511,
      "Ġwent": 3512,
      "Ġparticip": 3513,
      "round": 3514,
      "Ġwhite": 3515,
      "Ġthird": 3516,
      "Ġprogress": 3517,
      "Ġap": 3518,
      "lt": 3519,
      "$$": 3520,
      "Ð°Ñİ": 3521,
      "va": 3522,
      "ÐµÐ½Ð¸Ðµ": 3523,
      "aching": 3524,
      "infty": 3525,
      "ogle": 3526,
      "Ġfactor": 3527,
      "king": 3528,
      "Ġhit": 3529,
      "umn": 3530,
      "Ġcollect": 3531,
      "ordin": 3532,
      "Ġconcl": 3533,
      "Ġcast": 3534,
      "ipe": 3535,
      "urb": 3536,
      "Ġvan": 3537,
      "Ġmoving": 3538,
      "ĠØ±": 3539,
      "asons": 3540,
      "aly": 3541,
      "à¹Ģà¸": 3542,
      "phas": 3543,
      "gebra": 3544,
      "respond": 3545,
      "Ġbalance": 3546,
      "ening": 3547,
      "name": 3548,
      "illing": 3549,
      "Ġfollows": 3550,
      "Ġri": 3551,
      "Ġstrugg": 3552,
      "ĠAre": 3553,
      "lim": 3554,
      "Ġitems": 3555,
      "Ġstri": 3556,
      "Ġemb": 3557,
      "Ġprep": 3558,
      "ĠSec": 3559,
      "×Ŀ": 3560,
      "ales": 3561,
      "Ġdetermine": 3562,
      "Ġgets": 3563,
      "Ġeasier": 3564,
      "ĠPart": 3565,
      "Ġcool": 3566,
      "Ġattention": 3567,
      "Ġprofessional": 3568,
      "Ġlooks": 3569,
      "igma": 3570,
      "Ġcompletely": 3571,
      "Ġproof": 3572,
      "Ġaware": 3573,
      "orith": 3574,
      "Ġreve": 3575,
      "60": 3576,
      "Ġsets": 3577,
      "Ġplayer": 3578,
      "Ġbrand": 3579,
      "Ġefficient": 3580,
      "org": 3581,
      "Ð¸Ðµ": 3582,
      "Ġnetwork": 3583,
      "Ġpurpose": 3584,
      "Ġcenter": 3585,
      "rs": 3586,
      "ĠOverall": 3587,
      "ĠUnited": 3588,
      "ĠOf": 3589,
      "begin": 3590,
      "AN": 3591,
      "Ġnav": 3592,
      "cdot": 3593,
      "Ġobjects": 3594,
      "Ġuna": 3595,
      "Ġgraph": 3596,
      "Ġtypically": 3597,
      "orph": 3598,
      "je": 3599,
      "Ġvel": 3600,
      "Ġforward": 3601,
      "Ġdead": 3602,
      "Ġshall": 3603,
      "80": 3604,
      "Ġtit": 3605,
      "edic": 3606,
      "Ġsources": 3607,
      "Ġvoice": 3608,
      "Ġmagic": 3609,
      "Ġlos": 3610,
      "Ġreading": 3611,
      "ĠÏĢ": 3612,
      "Ġsomet": 3613,
      "Ġfine": 3614,
      "ĠMark": 3615,
      "pret": 3616,
      "Ð½Ð¾Ð³Ð¾": 3617,
      "Ġsil": 3618,
      "theta": 3619,
      "Ġvariables": 3620,
      "Ġwomen": 3621,
      "Ġfra": 3622,
      "Ġcorrespond": 3623,
      "ãģĹ": 3624,
      "Ġwarm": 3625,
      "ceed": 3626,
      "ades": 3627,
      "Ġà¤µ": 3628,
      "Ġwatch": 3629,
      "à¤£": 3630,
      "Ġwanted": 3631,
      "ss": 3632,
      "Ġfeature": 3633,
      "Äħ": 3634,
      "Ġfair": 3635,
      "uted": 3636,
      "ĠAss": 3637,
      "łáĥ": 3638,
      "ĠØ£": 3639,
      "istics": 3640,
      "Ġ199": 3641,
      "40": 3642,
      "Ġlines": 3643,
      "za": 3644,
      "Ġformula": 3645,
      "Ġsetting": 3646,
      "yr": 3647,
      "ih": 3648,
      "ensity": 3649,
      "ëĭ": 3650,
      "ached": 3651,
      "ĠPar": 3652,
      "Ġrunning": 3653,
      "ĠThus": 3654,
      "Ġinitial": 3655,
      "Ġculture": 3656,
      "cer": 3657,
      "Ġinteresting": 3658,
      "lear": 3659,
      "ĠOther": 3660,
      "Ġsex": 3661,
      "Ġswe": 3662,
      "hel": 3663,
      "dom": 3664,
      "num": 3665,
      "Ġtown": 3666,
      "Ġequival": 3667,
      "rangle": 3668,
      "ibly": 3669,
      "ÄĽ": 3670,
      "Ġactions": 3671,
      "bre": 3672,
      "alse": 3673,
      "Ġcompanies": 3674,
      "Ġerror": 3675,
      "Ġbooks": 3676,
      "ĠInt": 3677,
      "Ġplease": 3678,
      "Ġdefined": 3679,
      "Ġhappy": 3680,
      "Ġtrust": 3681,
      "à¤Ł": 3682,
      "Ġslight": 3683,
      "ufact": 3684,
      "iff": 3685,
      "Ġevalu": 3686,
      "Ġanyone": 3687,
      "Ġopportunities": 3688,
      "Ġloss": 3689,
      "more": 3690,
      "Ġdiag": 3691,
      "Ġprop": 3692,
      "ÑĥÑİ": 3693,
      "Ġcomputer": 3694,
      "Ġassume": 3695,
      "Ġà¤¨": 3696,
      "ĠFinally": 3697,
      "Ġchance": 3698,
      "gy": 3699,
      "ama": 3700,
      "ĠSee": 3701,
      "Ġaccur": 3702,
      "Ġintegr": 3703,
      "Ġinnov": 3704,
      "Ġfavor": 3705,
      "cial": 3706,
      "Ġvariable": 3707,
      "ÑĥÐ¼": 3708,
      "Ãµ": 3709,
      "Ġmi": 3710,
      "Ġblock": 3711,
      "Ġpurch": 3712,
      "Ġsaw": 3713,
      "cos": 3714,
      "Ġhon": 3715,
      "Ġhom": 3716,
      "room": 3717,
      "Ġmotiv": 3718,
      "ych": 3719,
      "bon": 3720,
      "Ġtax": 3721,
      "Ġbeautiful": 3722,
      "obal": 3723,
      "Ġthroughout": 3724,
      "ĠEven": 3725,
      "Ġanim": 3726,
      "Ġgoal": 3727,
      "Ġbed": 3728,
      "Ġhands": 3729,
      "....": 3730,
      "Ġinvolved": 3731,
      "Ġalgorith": 3732,
      "Ġscient": 3733,
      "Ġsounds": 3734,
      "à¸µ": 3735,
      "Ġsecurity": 3736,
      "Ġthus": 3737,
      "Ġcharge": 3738,
      "AS": 3739,
      "Ġcommunication": 3740,
      "Ïī": 3741,
      "lambda": 3742,
      "Ð°Ð»Ð¸": 3743,
      "ken": 3744,
      "Ġhistor": 3745,
      "Ö¼": 3746,
      "ype": 3747,
      "Ġrandom": 3748,
      "lar": 3749,
      "Ã©s": 3750,
      "Ġlost": 3751,
      "Ġdepends": 3752,
      "Ġà¤ħ": 3753,
      "ãģĻ": 3754,
      "hib": 3755,
      "gest": 3756,
      "Ġdeb": 3757,
      "Ġplant": 3758,
      "ĠInc": 3759,
      "Ġdocument": 3760,
      "omega": 3761,
      "Ġgreen": 3762,
      "vey": 3763,
      "ĠSm": 3764,
      "aign": 3765,
      "ĠEd": 3766,
      "Ð¿ÑĢ": 3767,
      "Ġsales": 3768,
      "Ġhimself": 3769,
      "ĠPe": 3770,
      "ky": 3771,
      "Ġcosts": 3772,
      "Ġstudent": 3773,
      "amed": 3774,
      "à®µ": 3775,
      "Ġinsp": 3776,
      "Ġsequence": 3777,
      "Ġq": 3778,
      "Ġpiece": 3779,
      "no": 3780,
      "ube": 3781,
      "Ġsuit": 3782,
      "Ġsi": 3783,
      "à¸¡": 3784,
      "Ð°Ð³": 3785,
      "Ġago": 3786,
      "icles": 3787,
      "ĠØ§ÙĦØ": 3788,
      "adem": 3789,
      "Ġdemon": 3790,
      "Ġprevious": 3791,
      "Ġoptim": 3792,
      "yond": 3793,
      "roll": 3794,
      "Ġbuy": 3795,
      "ÐµÐ¿": 3796,
      "Ġimmedi": 3797,
      "Ġasked": 3798,
      "igen": 3799,
      "23": 3800,
      "ĠÑģÐ¾": 3801,
      ",âĢĿ": 3802,
      "Ġperspect": 3803,
      "ãĤĭ": 3804,
      "Ġdistin": 3805,
      "Ġcountries": 3806,
      "ĠArt": 3807,
      "Ġexpression": 3808,
      "Ġdepending": 3809,
      "Ġep": 3810,
      "Ġeducation": 3811,
      "Ð°ÑĤÐ°": 3812,
      "reg": 3813,
      "leg": 3814,
      "Ġsometimes": 3815,
      "Ġwood": 3816,
      "Ġcross": 3817,
      "Ġimpl": 3818,
      "Ġcred": 3819,
      "high": 3820,
      "Ã¦": 3821,
      "Ġunit": 3822,
      "ĠOut": 3823,
      "Ġactual": 3824,
      "Ġapprox": 3825,
      "Ġgreater": 3826,
      "iding": 3827,
      "Ġearth": 3828,
      "ĠPa": 3829,
      "lict": 3830,
      "ipment": 3831,
      "Ġliter": 3832,
      "Ġgirl": 3833,
      "ĠÐ¿ÐµÑĢ": 3834,
      "Ġcoming": 3835,
      "Ġmap": 3836,
      "ĠEurope": 3837,
      "ĠÑĤÑĭ": 3838,
      "Ġincreasing": 3839,
      "],": 3840,
      "Ġphrase": 3841,
      "Ġappropri": 3842,
      "ĠAct": 3843,
      "Ġfinancial": 3844,
      "Ġlives": 3845,
      "Ġscen": 3846,
      "ender": 3847,
      "Ġparty": 3848,
      "ĠÛģ": 3849,
      "Ġdate": 3850,
      "ĠØ¬": 3851,
      "ĠSun": 3852,
      "Ġextreme": 3853,
      "ynam": 3854,
      "Ġenh": 3855,
      "Ġhost": 3856,
      "Ġnut": 3857,
      "Ġsoon": 3858,
      "asks": 3859,
      "^\\": 3860,
      "Ġbott": 3861,
      "atever": 3862,
      "ĠAv": 3863,
      "Ġconver": 3864,
      "Ġsmaller": 3865,
      "Ġallowing": 3866,
      "bb": 3867,
      "iring": 3868,
      "ĠHer": 3869,
      "Ð½Ð¾Ð¹": 3870,
      "ÑĥÑĢ": 3871,
      "Ġexpected": 3872,
      "Ġcontract": 3873,
      "Ġpatterns": 3874,
      "Ġgeomet": 3875,
      "Ġ\\\\": 3876,
      "Ġfight": 3877,
      "ĠâĢ¢": 3878,
      "Ġreference": 3879,
      "mon": 3880,
      "col": 3881,
      "Ġproduce": 3882,
      "rel": 3883,
      "ava": 3884,
      "Ġles": 3885,
      "}_": 3886,
      "Ġobtain": 3887,
      "Ġpredict": 3888,
      "which": 3889,
      "Ġsafety": 3890,
      "ĠPython": 3891,
      "Ġmatch": 3892,
      "pite": 3893,
      "à¤ľ": 3894,
      "Ð¸Ñı": 3895,
      "ÐµÐ³Ð¾": 3896,
      "ĠÑĪ": 3897,
      "igate": 3898,
      "24": 3899,
      "Ġprinci": 3900,
      "ĠUniversity": 3901,
      "asc": 3902,
      "Ġing": 3903,
      "à¦®": 3904,
      "Ġroot": 3905,
      "ĠÐ¿ÑĢÐ¾": 3906,
      "Ġconsequ": 3907,
      "Ġdoor": 3908,
      "Ġsection": 3909,
      "Ġmaybe": 3910,
      "200": 3911,
      "ios": 3912,
      "Ġtold": 3913,
      "Ġhab": 3914,
      "ĠIntern": 3915,
      "Ġmachine": 3916,
      "ĠÐĵ": 3917,
      "Ġhighly": 3918,
      "Ġweap": 3919,
      "à¥Ĥ": 3920,
      "Ġattempt": 3921,
      "Ġelectron": 3922,
      "gar": 3923,
      "ED": 3924,
      "ãģ¨": 3925,
      "+\\": 3926,
      "Ġjud": 3927,
      "Ġbasic": 3928,
      "python": 3929,
      "Ġnice": 3930,
      "era": 3931,
      "à´ª": 3932,
      "Ġà¤Ĩ": 3933,
      "ecause": 3934,
      "atur": 3935,
      "idge": 3936,
      "Ġsin": 3937,
      "Ġaf": 3938,
      "aily": 3939,
      "Ġprograms": 3940,
      "Ġsche": 3941,
      "Ġorigin": 3942,
      "body": 3943,
      "ĠNe": 3944,
      "omen": 3945,
      "Ġtouch": 3946,
      "Ġuniverse": 3947,
      "Ġinterested": 3948,
      "Ð½ÑĭÐ¹": 3949,
      "Ġwoman": 3950,
      "Ġfresh": 3951,
      "Ġlack": 3952,
      "Ġdegree": 3953,
      "Ġassociated": 3954,
      "Ġadapt": 3955,
      "Ġfields": 3956,
      "Ġma": 3957,
      "Ġsimpl": 3958,
      "lier": 3959,
      "Ġarch": 3960,
      "bor": 3961,
      "ti": 3962,
      "Ġ×¢": 3963,
      "Ã¢": 3964,
      "Ġutil": 3965,
      "Ġskin": 3966,
      "izations": 3967,
      "ĠÐ¿Ð¾Ð»": 3968,
      "Ġhandle": 3969,
      "Ġbuilt": 3970,
      "à´®": 3971,
      "ĠÐ¿ÑĢÐµÐ´": 3972,
      "enge": 3973,
      "Ġemotional": 3974,
      "Ġverb": 3975,
      "celer": 3976,
      "Ġsymbol": 3977,
      "mber": 3978,
      "Ð²Ð°": 3979,
      "Ġult": 3980,
      "Ġtherefore": 3981,
      "Ġsquare": 3982,
      "Ġbud": 3983,
      "Ġfeedback": 3984,
      "Ġ×Ľ": 3985,
      "kn": 3986,
      "hens": 3987,
      "à´±": 3988,
      "Ġpromot": 3989,
      "Ġlimited": 3990,
      "Ġcommand": 3991,
      "Ġadding": 3992,
      "Ġobv": 3993,
      "Ġfilm": 3994,
      "ĠHar": 3995,
      "ĠGerm": 3996,
      "Ġbegan": 3997,
      "Ġax": 3998,
      "aste": 3999,
      "Ġhyd": 4000,
      "Ġstar": 4001,
      "Ġeffectively": 4002,
      "Ã¨": 4003,
      "ĠÐ¼Ð¾Ð¶": 4004,
      "ĠPost": 4005,
      "Ã§Ã£o": 4006,
      "ams": 4007,
      "ĠWell": 4008,
      "×¡": 4009,
      "Ġlif": 4010,
      "Ġmount": 4011,
      "ulate": 4012,
      "ãĤĴ": 4013,
      "Ġattract": 4014,
      "Ġhar": 4015,
      "bar": 4016,
      "Ġsurv": 4017,
      "ĠServ": 4018,
      "Ġwonder": 4019,
      "ĠMon": 4020,
      "zz": 4021,
      "ĠÏĥ": 4022,
      "Ġincorpor": 4023,
      "ĠLast": 4024,
      "Ø·": 4025,
      "Ġperhaps": 4026,
      "ĠMin": 4027,
      "Ġscience": 4028,
      "Ġrecord": 4029,
      "Ġreality": 4030,
      "apan": 4031,
      "Ġsleep": 4032,
      "oul": 4033,
      "ÅĤ": 4034,
      "ÐµÐ¶": 4035,
      "ĠPol": 4036,
      "Ġcouldn": 4037,
      "Ġbecame": 4038,
      "Ġblood": 4039,
      "Ġoutput": 4040,
      "Ð½ÑĭÑħ": 4041,
      "icro": 4042,
      "Äĵ": 4043,
      "Ġinterpret": 4044,
      "Ġple": 4045,
      "ĠØ´": 4046,
      "Ġdescribe": 4047,
      "Ġcampaign": 4048,
      "ÑĥÐ¶": 4049,
      "Ġtour": 4050,
      "oly": 4051,
      "ãģ¦": 4052,
      "ilon": 4053,
      "ĠGe": 4054,
      "iles": 4055,
      "Ġanc": 4056,
      "care": 4057,
      "Ġjourney": 4058,
      "Ġplanet": 4059,
      "Ġdry": 4060,
      "Ġcrucial": 4061,
      "Ġgar": 4062,
      "Ġ40": 4063,
      "Ġtruth": 4064,
      "Ġà¸": 4065,
      "Ġopportunity": 4066,
      "ĠÎº": 4067,
      "Ġà¤¬": 4068,
      "Ġcollabor": 4069,
      "Ġwave": 4070,
      "Ġvirt": 4071,
      "Ġsurround": 4072,
      "Ġweak": 4073,
      "ĠDr": 4074,
      "Th": 4075,
      "ĠCor": 4076,
      "Ġcomments": 4077,
      "Ġadvant": 4078,
      "Ġlat": 4079,
      "Ġmanufact": 4080,
      "Ġrat": 4081,
      "Ġconv": 4082,
      "Ġmodels": 4083,
      "align": 4084,
      "Ġcritical": 4085,
      "Ġforms": 4086,
      "Ġpropos": 4087,
      "Ġled": 4088,
      "Ġarri": 4089,
      "do": 4090,
      "Ġà¤¤": 4091,
      "Ġreasons": 4092,
      "ÙĪØ±": 4093,
      "ÑĢÐ°Ð½": 4094,
      "Ġgiving": 4095,
      "apter": 4096,
      "Ġcontinuous": 4097,
      "Ġintern": 4098,
      "ĠÐ£": 4099,
      "earch": 4100,
      "Ġhyp": 4101,
      "Ġnarr": 4102,
      "ste": 4103,
      "Ġsuff": 4104,
      "Ġpark": 4105,
      "Ġemphas": 4106,
      "Ġmatrix": 4107,
      "eks": 4108,
      "Ġfive": 4109,
      "Ġmo": 4110,
      "odes": 4111,
      "Ġviol": 4112,
      "ellig": 4113,
      "ĠÐ´Ð°": 4114,
      "word": 4115,
      "Ġplaying": 4116,
      "Ġmist": 4117,
      "Ġ$$\\": 4118,
      "Ġrock": 4119,
      "ĠBu": 4120,
      "Ġarr": 4121,
      "atory": 4122,
      "Øµ": 4123,
      "Ġroad": 4124,
      "Ġà¤ľ": 4125,
      "Ġdrive": 4126,
      "Ġcra": 4127,
      "ĠVal": 4128,
      "ĠBar": 4129,
      "sec": 4130,
      "Ġgames": 4131,
      "Ġspirit": 4132,
      "Ġelectr": 4133,
      "IT": 4134,
      "à´µ": 4135,
      "Ġstraight": 4136,
      "Ġregion": 4137,
      "off": 4138,
      "Ġwouldn": 4139,
      "ĠMake": 4140,
      "ĠWorld": 4141,
      "Ġshape": 4142,
      "Ġmillion": 4143,
      "Ġnews": 4144,
      "ĠPres": 4145,
      "Ð½Ñı": 4146,
      "eps": 4147,
      "ball": 4148,
      "Ġhappens": 4149,
      "Ġqual": 4150,
      "Ġhear": 4151,
      "Ġidentity": 4152,
      "Ġremove": 4153,
      "Ġveloc": 4154,
      "Ġallowed": 4155,
      "oe": 4156,
      "Ġcontains": 4157,
      "ĠÙ¾": 4158,
      "cast": 4159,
      "Ð¸Ð»Ð¸": 4160,
      "Ġalgebra": 4161,
      "à§ģ": 4162,
      "ĠSch": 4163,
      "Ð°Ñı": 4164,
      "pm": 4165,
      "Ø®": 4166,
      "tr": 4167,
      "Ġmemory": 4168,
      "hi": 4169,
      "ĠÎ±": 4170,
      "AL": 4171,
      "Ġprefer": 4172,
      "Ġdisplay": 4173,
      "ĠWhy": 4174,
      "Ġconclusion": 4175,
      "craft": 4176,
      "bl": 4177,
      "Ð³Ð¾": 4178,
      "Ġreplace": 4179,
      "Ùī": 4180,
      "ĠStates": 4181,
      "Ġcyc": 4182,
      "Ġopin": 4183,
      "Ġbasis": 4184,
      "Ġdrink": 4185,
      "Ġbeyond": 4186,
      "Ġappropriate": 4187,
      "Ġcultural": 4188,
      "Õ¸Õ": 4189,
      "Ġtim": 4190,
      "Ġexpert": 4191,
      "urt": 4192,
      "Ġconstruct": 4193,
      "Ġemp": 4194,
      "ĠáĥĽ": 4195,
      "ÎŃ": 4196,
      "Ġload": 4197,
      "Ġvac": 4198,
      "Ġsave": 4199,
      "Ġ23": 4200,
      "Ġvia": 4201,
      "Ġtren": 4202,
      "cy": 4203,
      "Ġsmooth": 4204,
      "Ġcand": 4205,
      "Ġcolle": 4206,
      "ĠAny": 4207,
      "Ġpopulation": 4208,
      "Ġequipment": 4209,
      "Öģ": 4210,
      "âĢĵ": 4211,
      "Ġrich": 4212,
      "Ġnumer": 4213,
      "Ġsend": 4214,
      "Ġround": 4215,
      "Ġclosed": 4216,
      "Ġhighlight": 4217,
      "sub": 4218,
      "Ġ21": 4219,
      "Ġreact": 4220,
      "ĠMost": 4221,
      "Ġindependent": 4222,
      "etic": 4223,
      "Ġmother": 4224,
      "ares": 4225,
      "add": 4226,
      "Ġveh": 4227,
      "netic": 4228,
      "Ġatm": 4229,
      "ĠÑģÐº": 4230,
      "Ġappears": 4231,
      "à´³": 4232,
      "Ġdetect": 4233,
      "ned": 4234,
      "Ġtheorem": 4235,
      "Ö¸": 4236,
      "Ġconflict": 4237,
      "Ø§Ø¯": 4238,
      "Ġyes": 4239,
      "Ġcam": 4240,
      "Ġdefine": 4241,
      "Ġactivity": 4242,
      "ĠGoogle": 4243,
      "Ġblog": 4244,
      "ĠStud": 4245,
      "Ġtasks": 4246,
      "idden": 4247,
      "Ġwire": 4248,
      "à¤¶": 4249,
      "Ġready": 4250,
      "artment": 4251,
      "ĠÐķ": 4252,
      "ened": 4253,
      "Ġcertainly": 4254,
      "icit": 4255,
      "Ġà¤°": 4256,
      "Ġps": 4257,
      "unt": 4258,
      "Î³": 4259,
      "Ġhelpful": 4260,
      "Ġpractices": 4261,
      "Ġdise": 4262,
      "Ġpush": 4263,
      "Ð½ÑĭÐµ": 4264,
      "big": 4265,
      "Ġcry": 4266,
      "Ġseg": 4267,
      "Ġalone": 4268,
      "Ġprime": 4269,
      "Ġcoordin": 4270,
      "ologies": 4271,
      "Ġbusinesses": 4272,
      "Ġagre": 4273,
      "Ġarray": 4274,
      "ST": 4275,
      "70": 4276,
      "ĠUsing": 4277,
      "ilos": 4278,
      "Ġcareer": 4279,
      "ĠÐ²Ð¾": 4280,
      "Ġclar": 4281,
      "Ã¸": 4282,
      "Å³": 4283,
      "Ġguess": 4284,
      "Ġframe": 4285,
      "amental": 4286,
      "Ġtalking": 4287,
      "ĠWill": 4288,
      "ÐºÑĥ": 4289,
      "Ġrequirements": 4290,
      "udd": 4291,
      "hood": 4292,
      "ìĹ": 4293,
      "ÙĬØ©": 4294,
      "Ġemployees": 4295,
      "Ġforces": 4296,
      "Ġrepl": 4297,
      "ãģĮ": 4298,
      "EN": 4299,
      "othes": 4300,
      "Ġthoughts": 4301,
      "äº": 4302,
      "Ġaim": 4303,
      "Ġexec": 4304,
      "oper": 4305,
      "ĠÙħÛĮ": 4306,
      "ãģ¯": 4307,
      "Ġcalculate": 4308,
      "Ã¡s": 4309,
      "Ġflu": 4310,
      "Ġparam": 4311,
      "Õ¡Õ¯": 4312,
      "ests": 4313,
      "ĠDep": 4314,
      "Ġprojects": 4315,
      "Ġengaging": 4316,
      "Ġrob": 4317,
      "Ġbackground": 4318,
      "Ġrecent": 4319,
      "highlight": 4320,
      "Ġ22": 4321,
      "Ġconduct": 4322,
      "ternal": 4323,
      "Ġshown": 4324,
      "Ġslightly": 4325,
      "Ġpod": 4326,
      "Ġlibr": 4327,
      "ãģª": 4328,
      "Ð¼Ð¸": 4329,
      "Ġsymmet": 4330,
      "Ġrelig": 4331,
      "Ġreader": 4332,
      "Ġestablish": 4333,
      "used": 4334,
      "ĠØ§Ù": 4335,
      "Ġpresence": 4336,
      "Ġconnected": 4337,
      "Ġnu": 4338,
      "ĠÃł": 4339,
      "Ġcouple": 4340,
      "Ö°": 4341,
      "iday": 4342,
      "ĠRed": 4343,
      "Ġfully": 4344,
      "Ġpicture": 4345,
      "à¸§": 4346,
      "ĠÑĤÐ¾": 4347,
      "nes": 4348,
      "order": 4349,
      "iency": 4350,
      "Ð°ÑģÑĤ": 4351,
      "Ġmanage": 4352,
      "nu": 4353,
      "Ġsynt": 4354,
      "ĠJapan": 4355,
      "Ġoppos": 4356,
      "Ġacceler": 4357,
      "áĥķ": 4358,
      "×Ĵ": 4359,
      "Ġimportance": 4360,
      "uge": 4361,
      "Òĵ": 4362,
      "psi": 4363,
      "onic": 4364,
      "Ġspaces": 4365,
      "33": 4366,
      "Ġpor": 4367,
      "igation": 4368,
      "Ġbreath": 4369,
      "Ġprivate": 4370,
      "Ġnotes": 4371,
      "ils": 4372,
      "Ġderiv": 4373,
      "Ġemerg": 4374,
      "Ġfinite": 4375,
      "Ġindeed": 4376,
      "iable": 4377,
      "ĠLord": 4378,
      "Ã´": 4379,
      "Ġcombination": 4380,
      "ĠÐ¿ÑĢÐ¸": 4381,
      "ief": 4382,
      "su": 4383,
      "friend": 4384,
      "Ġsong": 4385,
      "unction": 4386,
      "ĠMany": 4387,
      "ublic": 4388,
      "ĠGet": 4389,
      "Ġquantum": 4390,
      "Ġpen": 4391,
      "orks": 4392,
      "ĠUp": 4393,
      "Ġdynam": 4394,
      "Ġincreased": 4395,
      "AC": 4396,
      "Ġclearly": 4397,
      "Ġheard": 4398,
      "Ġguid": 4399,
      "Ġfigure": 4400,
      "ĠSte": 4401,
      "×¦": 4402,
      "Ġunless": 4403,
      "Ġeconomic": 4404,
      "list": 4405,
      "ĠGener": 4406,
      "chen": 4407,
      "Ġenter": 4408,
      "å¤": 4409,
      "áĥ£áĥ": 4410,
      "ĠÙĩ": 4411,
      "ession": 4412,
      "ille": 4413,
      "Ġmyself": 4414,
      "ĠMod": 4415,
      "Ġappe": 4416,
      "Ġcarry": 4417,
      "Ġconstruction": 4418,
      "Ġstories": 4419,
      "ĠGl": 4420,
      "Ġphone": 4421,
      "Ġatmosp": 4422,
      "alt": 4423,
      "oke": 4424,
      "à´£": 4425,
      "Ġseparate": 4426,
      "à¸¥": 4427,
      "Ġwhatever": 4428,
      "Ġworked": 4429,
      "Ġveget": 4430,
      "Ġdemonstr": 4431,
      "omial": 4432,
      "sin": 4433,
      "Ġsuccessful": 4434,
      "aught": 4435,
      "Ġà¤¦": 4436,
      "Ġhealthy": 4437,
      "ĠFl": 4438,
      "ĠRom": 4439,
      "Ð¸Ð¸": 4440,
      "Ġbrain": 4441,
      "ĠÐ´Ð»Ñı": 4442,
      "uce": 4443,
      "ĠSw": 4444,
      "attle": 4445,
      "Ġreaction": 4446,
      "urg": 4447,
      "Õ¥ÖĢ": 4448,
      "×ĺ": 4449,
      "Ġabsolute": 4450,
      "change": 4451,
      "bu": 4452,
      "Ġmit": 4453,
      "ĠRead": 4454,
      "Ġdescribed": 4455,
      "ĠDet": 4456,
      "ĠMat": 4457,
      "Ġrespond": 4458,
      "Ġ×Ļ": 4459,
      "Ġsurpr": 4460,
      "ĠWar": 4461,
      "Ġspread": 4462,
      "ĠTrans": 4463,
      "Ġbag": 4464,
      "Ġpull": 4465,
      "Ġtree": 4466,
      "ione": 4467,
      "arc": 4468,
      "Ġnames": 4469,
      "key": 4470,
      "Ġasking": 4471,
      "Ġmember": 4472,
      "ĠAut": 4473,
      "Ġstrategy": 4474,
      "ĠLook": 4475,
      "Ġstrategies": 4476,
      "board": 4477,
      "Ġanswers": 4478,
      "ĠAccording": 4479,
      "Ġgram": 4480,
      "imin": 4481,
      "Ġja": 4482,
      "Ġswitch": 4483,
      "Ġesc": 4484,
      "Ġid": 4485,
      "Ġign": 4486,
      "Ð»Ð¾": 4487,
      "ĠChar": 4488,
      "ĠEvery": 4489,
      "sigma": 4490,
      "Ġscale": 4491,
      "ĠSupp": 4492,
      "à¸´": 4493,
      "ÑīÐµ": 4494,
      "ĠHigh": 4495,
      "à¤·": 4496,
      "Ġpercent": 4497,
      "Ġfinding": 4498,
      "Ġinvolve": 4499,
      "ya": 4500,
      "Ġdeveloped": 4501,
      "Ġsix": 4502,
      "Ð°Ð»Ð°": 4503,
      "Ġsolve": 4504,
      "ĠStep": 4505,
      "Ġpun": 4506,
      "Ġneut": 4507,
      "ĠÐ¼ÐµÐ½": 4508,
      "ruit": 4509,
      "Ġrepe": 4510,
      "redients": 4511,
      "Ġmole": 4512,
      "Ġapart": 4513,
      "ĠÐ¸Ð¼": 4514,
      "ni": 4515,
      "reci": 4516,
      "Ġhair": 4517,
      "45": 4518,
      "Ġbul": 4519,
      "ÄĻ": 4520,
      "nh": 4521,
      "Î±Î¹": 4522,
      "Ġplaces": 4523,
      "obile": 4524,
      "oes": 4525,
      "ĠBrit": 4526,
      "Ġexplan": 4527,
      "alle": 4528,
      "Ġsociety": 4529,
      "ita": 4530,
      "Ġdescription": 4531,
      "Ġtrip": 4532,
      "Ġcapac": 4533,
      "omorph": 4534,
      "åı": 4535,
      "ham": 4536,
      "Ġcele": 4537,
      "ĠØ§ÙĦÙħ": 4538,
      "Ò£": 4539,
      "Ġdevice": 4540,
      "Ġmaximum": 4541,
      "Ġnotice": 4542,
      "Ġplane": 4543,
      "Ġlegal": 4544,
      "à¤§": 4545,
      "Ġexists": 4546,
      "Ġexisting": 4547,
      "ĠTake": 4548,
      "Ġboard": 4549,
      "ulations": 4550,
      "Ġà¦¸": 4551,
      "ĠØŃ": 4552,
      "ĠII": 4553,
      "Ġhumans": 4554,
      "Ð¾Ð¼Ñĥ": 4555,
      "Ġaw": 4556,
      "ffee": 4557,
      "Ġemotions": 4558,
      "OT": 4559,
      "Ġcreature": 4560,
      "Ġtreatment": 4561,
      "Ġthreat": 4562,
      "Ġimplic": 4563,
      "ĠSet": 4564,
      "Ġneigh": 4565,
      "ikip": 4566,
      "ĠCity": 4567,
      "Ġresid": 4568,
      "ID": 4569,
      "Ġeat": 4570,
      "Ġoffice": 4571,
      "Ġaccurate": 4572,
      "Ġmotion": 4573,
      "},": 4574,
      "ida": 4575,
      "Ġdecisions": 4576,
      "Ġvolume": 4577,
      "omp": 4578,
      "Ġdigital": 4579,
      "mar": 4580,
      "Ġfather": 4581,
      "Ġà¦ķ": 4582,
      "Ð°ÑĪ": 4583,
      "Ġblue": 4584,
      "ĠDay": 4585,
      "Ġformal": 4586,
      "iced": 4587,
      "We": 4588,
      "ctors": 4589,
      "à¸Ķ": 4590,
      "oming": 4591,
      "vis": 4592,
      "ĠJan": 4593,
      "Ġdaily": 4594,
      "rench": 4595,
      "Ġprove": 4596,
      "ãģ¾": 4597,
      "Ġvelocity": 4598,
      "ĠØ§Ø³": 4599,
      "ikipedia": 4600,
      "ĠÐŃ": 4601,
      "Ġassist": 4602,
      "Ġquot": 4603,
      "Ġglobal": 4604,
      "100": 4605,
      "ifying": 4606,
      "encies": 4607,
      "Ġdouble": 4608,
      "Ġdecre": 4609,
      "ĠÙħÙĨ": 4610,
      "itution": 4611,
      "Ġexperiment": 4612,
      "Ġwasn": 4613,
      "Ġfundamental": 4614,
      "Ġheld": 4615,
      "Ġmel": 4616,
      "Ð°Ð¼Ð¸": 4617,
      "Ġlocated": 4618,
      "ĠRuss": 4619,
      "Ġtips": 4620,
      "Ġequations": 4621,
      "point": 4622,
      "urance": 4623,
      "agon": 4624,
      "Ġcomponents": 4625,
      "Ġtal": 4626,
      "ĠPark": 4627,
      "Ġexpand": 4628,
      "Ġweeks": 4629,
      "ico": 4630,
      "lam": 4631,
      "Î®": 4632,
      "Ġvalu": 4633,
      "Ġmedical": 4634,
      "oo": 4635,
      "ĠÐĹ": 4636,
      "Ġlaws": 4637,
      "Ġplot": 4638,
      "Ġà¦¬": 4639,
      "ĠState": 4640,
      "Ġeye": 4641,
      "eper": 4642,
      "Ġà®ª": 4643,
      "omb": 4644,
      "Ġaren": 4645,
      "Ġment": 4646,
      "Ð¸ÑģÑĤ": 4647,
      "Ġsect": 4648,
      "ĠDav": 4649,
      "ãĥ³": 4650,
      "Ġtrain": 4651,
      "Ġhttps": 4652,
      "Ġstick": 4653,
      "Ġreceive": 4654,
      "×ķ×¨": 4655,
      "itary": 4656,
      "Ġ60": 4657,
      "Ġparents": 4658,
      "ÑģÑĮ": 4659,
      "Ġcu": 4660,
      "Ġlate": 4661,
      "Ġdemand": 4662,
      "ÑģÐ¿": 4663,
      "Ġlas": 4664,
      "Ġdru": 4665,
      "à¸¢": 4666,
      "Ġwaste": 4667,
      "Ġkit": 4668,
      "Ġimages": 4669,
      "ĠÑĺ": 4670,
      "Æ°á»": 4671,
      "Ġbottom": 4672,
      "ÑĤÑĮ": 4673,
      "ĠAf": 4674,
      "ĠCO": 4675,
      "Ġdream": 4676,
      "Ġwilling": 4677,
      "Ġsuggests": 4678,
      "ÄŁ": 4679,
      "iling": 4680,
      "Ġdoub": 4681,
      "75": 4682,
      "ini": 4683,
      "Ġ<": 4684,
      "Õµ": 4685,
      "Ġfear": 4686,
      "ãģŁ": 4687,
      "ivil": 4688,
      "Ġscript": 4689,
      "Ġtried": 4690,
      "lit": 4691,
      "Ġsav": 4692,
      "Ġclim": 4693,
      "ĠCount": 4694,
      "Ġchallenge": 4695,
      "mission": 4696,
      ":**": 4697,
      "Ġspend": 4698,
      "à¦¸": 4699,
      "iber": 4700,
      "Ġenvironmental": 4701,
      "Ġleaves": 4702,
      "racy": 4703,
      "Ġcompre": 4704,
      "Ġdanger": 4705,
      "åĪ": 4706,
      "Ġalthough": 4707,
      "Ġhy": 4708,
      "Ġideal": 4709,
      "Ĥ¬": 4710,
      "Ġconcerns": 4711,
      "Ġfixed": 4712,
      "ÐµÑģÐº": 4713,
      "ĠÎµ": 4714,
      "aciÃ³n": 4715,
      "uration": 4716,
      "Ġinfluence": 4717,
      "Ġstuff": 4718,
      "ĠRemember": 4719,
      "ĠØ¢": 4720,
      "Ð°ÑĨÐ¸": 4721,
      "Ġbroad": 4722,
      "Ġcolumn": 4723,
      "Ġflex": 4724,
      "æľ": 4725,
      "Ġgold": 4726,
      "isms": 4727,
      "Ġadvanced": 4728,
      "Ú¾": 4729,
      "Ġtask": 4730,
      "ĠDis": 4731,
      "Ġmovement": 4732,
      "Ġmeeting": 4733,
      "iliar": 4734,
      "Ġequivalent": 4735,
      "delta": 4736,
      "Ġten": 4737,
      "IC": 4738,
      "Ġspecies": 4739,
      "Ġstaff": 4740,
      "Ġgenerate": 4741,
      "ĠInstead": 4742,
      "Ġreducing": 4743,
      "ĠÑģÐµ": 4744,
      "Ġappreci": 4745,
      "ĠDef": 4746,
      "Ġinsights": 4747,
      "ails": 4748,
      "asure": 4749,
      "Ġgard": 4750,
      "Ġmid": 4751,
      "ĠNational": 4752,
      "Ġphysics": 4753,
      "Ġdro": 4754,
      "Ġcopy": 4755,
      "Ġarm": 4756,
      "var": 4757,
      "ĠÑĨ": 4758,
      "ÐµÐ½ÑĮ": 4759,
      "sk": 4760,
      "pty": 4761,
      "Ġintegral": 4762,
      "ĠAust": 4763,
      "Ġchanged": 4764,
      "Ġexcell": 4765,
      "Ġprem": 4766,
      "Ġcollection": 4767,
      "ĠBecause": 4768,
      "ously": 4769,
      "Ġofficial": 4770,
      "Ġsustainable": 4771,
      "ĠMus": 4772,
      "ĠÐ¾Ð½": 4773,
      "ellow": 4774,
      "].": 4775,
      "Ġrestaur": 4776,
      "Ġol": 4777,
      "Ġmathematical": 4778,
      "Ġguide": 4779,
      "Ġpromote": 4780,
      "Ġcold": 4781,
      "Ġbond": 4782,
      "Ġ;": 4783,
      "Ġí": 4784,
      "ativity": 4785,
      "Ġactive": 4786,
      "ĠÐ±ÑĥÐ´": 4787,
      "ĠMed": 4788,
      "^{\\": 4789,
      "Ð¾Ð²Ð¾ÑĢ": 4790,
      "ÑģÐ»Ð¸": 4791,
      "zen": 4792,
      "Ġcit": 4793,
      "ĠBo": 4794,
      "term": 4795,
      "ĠOff": 4796,
      "Ġorganization": 4797,
      "Ġbeginning": 4798,
      "Ġmovie": 4799,
      "Ġalt": 4800,
      "ĠEach": 4801,
      "Ġsides": 4802,
      "ĠÑģÐ¿": 4803,
      "Ġbank": 4804,
      "Ġà¤Ĺ": 4805,
      "ĠBra": 4806,
      "ĠSpec": 4807,
      "Ġburn": 4808,
      "rig": 4809,
      "Ïĩ": 4810,
      "ĠMag": 4811,
      "gra": 4812,
      "Ġmiddle": 4813,
      "ception": 4814,
      "Ġeffort": 4815,
      "Ġletter": 4816,
      "itect": 4817,
      "ĠKing": 4818,
      "ography": 4819,
      "Ġ==": 4820,
      "see": 4821,
      "ought": 4822,
      "Ð¾Ð³Ð´Ð°": 4823,
      "Ġerr": 4824,
      "Ġusage": 4825,
      "lude": 4826,
      "olds": 4827,
      "Ġspecifically": 4828,
      "ĠOb": 4829,
      "Ä±n": 4830,
      "rought": 4831,
      "Ð¾Ðµ": 4832,
      "ĠCheck": 4833,
      "iant": 4834,
      "ÙĨØ¯": 4835,
      "what": 4836,
      "rect": 4837,
      "Ġtransfer": 4838,
      "Ġtransl": 4839,
      "inter": 4840,
      "known": 4841,
      "ĠÎ¼": 4842,
      "Ġimplies": 4843,
      "Ġprimary": 4844,
      "Ġgod": 4845,
      "Ġprote": 4846,
      "Ġdistinct": 4847,
      "Ġrele": 4848,
      "Ġchain": 4849,
      "Ġserve": 4850,
      "Ġimmediately": 4851,
      "Ġperspective": 4852,
      "Ġ).": 4853,
      "Ġweather": 4854,
      "Ġalternative": 4855,
      "ĠSub": 4856,
      "26": 4857,
      "ĠØ¯Ø±": 4858,
      "ĠNorth": 4859,
      "Ġanimals": 4860,
      "ÅĻ": 4861,
      "Ġship": 4862,
      "Ġmetal": 4863,
      "Ġ2017": 4864,
      "Ġhappened": 4865,
      "down": 4866,
      "mm": 4867,
      "Ġcurrently": 4868,
      "Ġvary": 4869,
      "Ġprecise": 4870,
      "Ġlik": 4871,
      "mod": 4872,
      "|\\": 4873,
      "à¤¬": 4874,
      "Ġpublished": 4875,
      "Õ¡Õµ": 4876,
      "Ġgradu": 4877,
      "Ġbudget": 4878,
      "Ġ28": 4879,
      "Ġplanning": 4880,
      "ĠâĪ": 4881,
      "ĠÔ": 4882,
      "Delta": 4883,
      "Ġreaders": 4884,
      "but": 4885,
      "ario": 4886,
      "ĠÙĤ": 4887,
      "ĠOp": 4888,
      "Ġotherwise": 4889,
      "Ġdevices": 4890,
      "Ġgave": 4891,
      "ishing": 4892,
      "28": 4893,
      "iny": 4894,
      "hold": 4895,
      "ĠSouth": 4896,
      "Ġrow": 4897,
      "ev": 4898,
      "×Ł": 4899,
      "rupt": 4900,
      "ĠSystem": 4901,
      "Ġwhose": 4902,
      "('": 4903,
      "ĠØ®": 4904,
      "Ġplants": 4905,
      "ÐĲ": 4906,
      "Ġinterview": 4907,
      "Ġcounter": 4908,
      "ource": 4909,
      "ĠYork": 4910,
      "rate": 4911,
      "comm": 4912,
      "Ġchanging": 4913,
      "Ġrates": 4914,
      "year": 4915,
      "ĠGood": 4916,
      "orage": 4917,
      "ĠCreate": 4918,
      "It": 4919,
      "Ġintellig": 4920,
      "Ġindex": 4921,
      "rd": 4922,
      "ÖĦ": 4923,
      "Ġcircum": 4924,
      "Ġsample": 4925,
      "à¤¡": 4926,
      "Ġcoe": 4927,
      "Ġancient": 4928,
      "gram": 4929,
      "ÐµÑĪÑĮ": 4930,
      "Ġoperations": 4931,
      "bert": 4932,
      "Ġclasses": 4933,
      "ĠBlack": 4934,
      "iam": 4935,
      "ÑħÐ¾Ð´": 4936,
      "ocks": 4937,
      "Ġinstruct": 4938,
      "Ġ2018": 4939,
      "ensional": 4940,
      "Ġearlier": 4941,
      "iem": 4942,
      "ĠUK": 4943,
      "abilities": 4944,
      "Ġincluded": 4945,
      "lin": 4946,
      "Ġà¦ª": 4947,
      "Ġrelative": 4948,
      "Ġadvice": 4949,
      "Ġhour": 4950,
      "ingu": 4951,
      "Ġfarm": 4952,
      "Ġonto": 4953,
      "Ġkill": 4954,
      "Ġdedic": 4955,
      "ĠÙģÙĬ": 4956,
      "Ġ26": 4957,
      "Ġexplicit": 4958,
      "ano": 4959,
      "Ġteac": 4960,
      "Ġparticles": 4961,
      "à¦¦": 4962,
      "áĥĲáĥľ": 4963,
      "ĠJew": 4964,
      "Ġscene": 4965,
      "})": 4966,
      "Ġbur": 4967,
      "Ġsor": 4968,
      "Ġ2013": 4969,
      "ership": 4970,
      "ÑģÑĤÑĢ": 4971,
      "othing": 4972,
      "ĠJack": 4973,
      "Ġtopic": 4974,
      "ÑĪÐµ": 4975,
      "Ġpolitical": 4976,
      "PI": 4977,
      "beta": 4978,
      "Ġsam": 4979,
      "Ġcompared": 4980,
      "inder": 4981,
      "Ġscreen": 4982,
      "Ġtick": 4983,
      "oving": 4984,
      "Ġdensity": 4985,
      "ii": 4986,
      "Ġtone": 4987,
      "Ġfalse": 4988,
      "ĠBook": 4989,
      "Ġlearned": 4990,
      "rho": 4991,
      "cious": 4992,
      "with": 4993,
      "overy": 4994,
      "Ġcolors": 4995,
      "Ġdivid": 4996,
      "Ġhelped": 4997,
      "Ġexercise": 4998,
      "Ġagree": 4999,
      "tical": 5000,
      "Ġà®ķ": 5001,
      "Ġangle": 5002,
      "Ġbatter": 5003,
      "ĠDevelop": 5004,
      "Ġcarbon": 5005,
      "ÑĤÐ¸": 5006,
      "ÑĭÐ¹": 5007,
      "po": 5008,
      "ĠÑĤÐµÐ±": 5009,
      "rows": 5010,
      "Ġring": 5011,
      "Ġassign": 5012,
      "Ġ2012": 5013,
      "ÑĢÑĥÐ³": 5014,
      "ando": 5015,
      "ensions": 5016,
      "ocol": 5017,
      "Ġgrand": 5018,
      "cript": 5019,
      "Ġdepth": 5020,
      "à´Ļ": 5021,
      "olve": 5022,
      "Ġacadem": 5023,
      "mark": 5024,
      "Ġwants": 5025,
      "Ġreceived": 5026,
      "EC": 5027,
      "Ġnarrative": 5028,
      "Ġplayed": 5029,
      "IS": 5030,
      "Ġremains": 5031,
      "27": 5032,
      "Ġleaving": 5033,
      "Ġbenefit": 5034,
      "Ġalign": 5035,
      "Ġdin": 5036,
      "NAME": 5037,
      "()`": 5038,
      "Ġfrequency": 5039,
      "Ġcos": 5040,
      "Ġvict": 5041,
      "ĠAc": 5042,
      "ĠAug": 5043,
      "minist": 5044,
      "xy": 5045,
      "Ġnamed": 5046,
      "Ġà¤Ń": 5047,
      "Ġconsidering": 5048,
      "Ġglass": 5049,
      "raw": 5050,
      "Ñļ": 5051,
      "Ġunivers": 5052,
      "ĠÐ¸Ð½": 5053,
      "Ġpolicy": 5054,
      "ĠVis": 5055,
      "ĠÐµÐ³Ð¾": 5056,
      "hest": 5057,
      "tra": 5058,
      "Ġking": 5059,
      "Ġprocesses": 5060,
      "Ġfuel": 5061,
      "Ġcompl": 5062,
      "Ġapplied": 5063,
      "ibilities": 5064,
      "Ġdog": 5065,
      "Ġdefinitely": 5066,
      "ĠAlex": 5067,
      "ĠÐŁÑĢ": 5068,
      "Ġshap": 5069,
      "Ġsolid": 5070,
      "Ġ2014": 5071,
      "Ġadvantage": 5072,
      "Ġphilos": 5073,
      "Ġfat": 5074,
      "ĠÐ¿Ð¾Ñģ": 5075,
      "den": 5076,
      "ĠAir": 5077,
      "ossible": 5078,
      "Ġcentury": 5079,
      "ocal": 5080,
      "Ġcoffee": 5081,
      "Ġvaluable": 5082,
      "acing": 5083,
      "ĠStart": 5084,
      "áº¿": 5085,
      "rite": 5086,
      "Ġpu": 5087,
      "Ġtruly": 5088,
      "Ġcreative": 5089,
      "Ġcomprehens": 5090,
      "isk": 5091,
      "ĠFurther": 5092,
      "ëĬ": 5093,
      "Ġheight": 5094,
      "Ġein": 5095,
      "Ġ27": 5096,
      "ĠRel": 5097,
      "dots": 5098,
      "ÙĪÙĨ": 5099,
      "Ġtechnical": 5100,
      "osing": 5101,
      "jo": 5102,
      "Õ«Õ": 5103,
      "gon": 5104,
      "Ġunf": 5105,
      "Ġinj": 5106,
      "ĠGree": 5107,
      "Ġatmosphere": 5108,
      "Ġnecessarily": 5109,
      "ET": 5110,
      "ault": 5111,
      "Ġrelease": 5112,
      "Ġnoun": 5113,
      "ague": 5114,
      "Ġsolar": 5115,
      "Ġconsistent": 5116,
      "Ġsold": 5117,
      "ums": 5118,
      "Ġsweet": 5119,
      "90": 5120,
      "Ġ?": 5121,
      "Ġabilities": 5122,
      "nomial": 5123,
      "Ġconversation": 5124,
      "Ġdesired": 5125,
      "rees": 5126,
      "ounds": 5127,
      "icing": 5128,
      "Ġhole": 5129,
      "rete": 5130,
      "lig": 5131,
      "Ġfaster": 5132,
      "ĠSchool": 5133,
      "Ġvar": 5134,
      "Ġáĥĵ": 5135,
      "Ð½Ð¾Ðµ": 5136,
      "gamma": 5137,
      "Ġreveal": 5138,
      "Ġconserv": 5139,
      "ira": 5140,
      "à´ļ": 5141,
      "ĠÐºÐ¾ÑĤÐ¾ÑĢ": 5142,
      "Ġpure": 5143,
      "ĠÐ·Ð½Ð°": 5144,
      "Ġparticle": 5145,
      "ends": 5146,
      "Ġpowers": 5147,
      "cel": 5148,
      "Ġconsequences": 5149,
      "Ġenhance": 5150,
      "ĠÐºÐ¾Ð½": 5151,
      "Ġflight": 5152,
      "Ġsell": 5153,
      "Ġmeasures": 5154,
      "Ġloop": 5155,
      "Ġmathematics": 5156,
      "iki": 5157,
      "Ð¸ÑĤÐµÐ»ÑĮ": 5158,
      "Ġmeant": 5159,
      "å®": 5160,
      "unk": 5161,
      "rest": 5162,
      "position": 5163,
      "Ġkids": 5164,
      "Ġempty": 5165,
      "men": 5166,
      "Ġturned": 5167,
      "Ġod": 5168,
      "rie": 5169,
      "Ġcraft": 5170,
      "Ġassess": 5171,
      "Ġinstr": 5172,
      "Ġtitle": 5173,
      "')": 5174,
      "usive": 5175,
      "duc": 5176,
      "}$.": 5177,
      "Ġcentral": 5178,
      "Ġhydro": 5179,
      "rael": 5180,
      "Ġpieces": 5181,
      "Ġgrowing": 5182,
      "ĠHealth": 5183,
      "Ġadvent": 5184,
      "áĥ¡": 5185,
      "Ġsalt": 5186,
      "ĠOh": 5187,
      "Ġok": 5188,
      "Ġshared": 5189,
      "Ã¶r": 5190,
      "Åĳ": 5191,
      "Ġstarts": 5192,
      "Ġrelax": 5193,
      "Ġreturns": 5194,
      "ront": 5195,
      "Ġpeace": 5196,
      "ĠÙĬ": 5197,
      "Ġcourt": 5198,
      "Ġdifferences": 5199,
      "Ġconcent": 5200,
      "Ġpal": 5201,
      "Ġnuc": 5202,
      "nam": 5203,
      "áĥł": 5204,
      "Ġsupply": 5205,
      "Ġlatest": 5206,
      "35": 5207,
      "ĠPaul": 5208,
      "Ġáĥ¡": 5209,
      "enty": 5210,
      "aby": 5211,
      "}$$": 5212,
      "Ġpour": 5213,
      "Ġsummary": 5214,
      "Ġbeauty": 5215,
      "ĠSar": 5216,
      "Ġwait": 5217,
      "dim": 5218,
      "eria": 5219,
      "Ġcomponent": 5220,
      "Ġplans": 5221,
      "Ġfloor": 5222,
      "Ġdelic": 5223,
      "ĠSol": 5224,
      "Ġà´ª": 5225,
      "ses": 5226,
      "ĠOct": 5227,
      "Ġacid": 5228,
      "Ġflavor": 5229,
      "ictionary": 5230,
      "ui": 5231,
      "Ġsch": 5232,
      "Ġfeelings": 5233,
      "Ġ198": 5234,
      "irect": 5235,
      "Ġvill": 5236,
      "Ġfinally": 5237,
      "ëĭ¤": 5238,
      "eds": 5239,
      "çļ": 5240,
      "onal": 5241,
      "Ġvot": 5242,
      "Ġcategory": 5243,
      "anch": 5244,
      "ĠSer": 5245,
      "Ġadvance": 5246,
      "Ġdeveloping": 5247,
      "Î¹Îº": 5248,
      "Õ«Õ¶": 5249,
      "EL": 5250,
      "Ġrelatively": 5251,
      "Ġnor": 5252,
      "Ġaspects": 5253,
      "Ġrare": 5254,
      "Ġspect": 5255,
      "olic": 5256,
      "Ð½Ð¸Ðº": 5257,
      "Ġpolynomial": 5258,
      "Ġspot": 5259,
      "Ġoffering": 5260,
      "ĠSam": 5261,
      "Ġalgorithm": 5262,
      "zing": 5263,
      "Ġrenew": 5264,
      "rief": 5265,
      "Ġformer": 5266,
      "Ġnovel": 5267,
      "formation": 5268,
      "Ġbow": 5269,
      "Ġmusc": 5270,
      "Ġspin": 5271,
      "Ġcomfortable": 5272,
      "Ġà¤²": 5273,
      "Ġ2016": 5274,
      "ÑĸÐ½": 5275,
      "ĠTV": 5276,
      "ÑĢÐµÐ¼": 5277,
      "åħ": 5278,
      "Ġtesting": 5279,
      "epsilon": 5280,
      "Ġdeeper": 5281,
      "à¸Ĺ": 5282,
      "ĠÐ½Ð¾": 5283,
      "Ġminor": 5284,
      "ĠNext": 5285,
      "ÏĨ": 5286,
      "hent": 5287,
      "Ġplus": 5288,
      "Ïį": 5289,
      "umber": 5290,
      "ìĿ´": 5291,
      "Ġcaused": 5292,
      "force": 5293,
      "Ġinfinite": 5294,
      "ashion": 5295,
      "ĠLaw": 5296,
      "itter": 5297,
      "Ġ2019": 5298,
      "ÑĥÐ»": 5299,
      "rote": 5300,
      "Ġedge": 5301,
      "Ġresponsible": 5302,
      "itute": 5303,
      "Ġknows": 5304,
      "Ġiniti": 5305,
      "ÑĭÐµ": 5306,
      "Ġmorning": 5307,
      "ĠFrench": 5308,
      "Ġresulting": 5309,
      "mitted": 5310,
      "ĠÐĽ": 5311,
      "à¸°": 5312,
      "ĠDec": 5313,
      "Ġbirth": 5314,
      "Ġsmart": 5315,
      "Ġbike": 5316,
      "Ġinterests": 5317,
      "29": 5318,
      "Ð´Ðµ": 5319,
      "Ġmer": 5320,
      "Ġfem": 5321,
      "ÉĻr": 5322,
      "Ġminim": 5323,
      "abb": 5324,
      "Ġefforts": 5325,
      "ugg": 5326,
      "Ġdetermined": 5327,
      "ä»": 5328,
      "roy": 5329,
      "Ġmomentum": 5330,
      "under": 5331,
      "ÑĭÐ²": 5332,
      "Ġclients": 5333,
      "Ö·": 5334,
      "Ġtaste": 5335,
      "Ġtil": 5336,
      "Ġcompar": 5337,
      "Ġencourage": 5338,
      "Ġexcellent": 5339,
      "Ġchann": 5340,
      "Ð¾Ð»ÑĮÐºÐ¾": 5341,
      "×Ļ×ª": 5342,
      "opt": 5343,
      "Ġdecided": 5344,
      "Ġleads": 5345,
      "inger": 5346,
      "çļĦ": 5347,
      "Î¸": 5348,
      "à¸ļ": 5349,
      "Ġclimate": 5350,
      "Ġtherap": 5351,
      "Ġdial": 5352,
      "iveness": 5353,
      "Ãªn": 5354,
      "Ġthick": 5355,
      "Õ¸ÖĤÕ´": 5356,
      "Ġfavorite": 5357,
      "Ġenem": 5358,
      "Ġflat": 5359,
      "Ġfaith": 5360,
      "print": 5361,
      "enses": 5362,
      "Ñį": 5363,
      "Ġbrought": 5364,
      "ê³": 5365,
      "Ġpartner": 5366,
      "rab": 5367,
      "ĠMc": 5368,
      "Ġstudies": 5369,
      "ouble": 5370,
      "vo": 5371,
      "tag": 5372,
      "Ġcas": 5373,
      "umin": 5374,
      "Ð¡": 5375,
      "ĠTechn": 5376,
      "ëĬĶ": 5377,
      "Ġgravity": 5378,
      "wood": 5379,
      "Ġegg": 5380,
      "ipped": 5381,
      "ĠÕ°": 5382,
      "Ġformat": 5383,
      "ancy": 5384,
      "hand": 5385,
      "Ġspent": 5386,
      "Ġpsych": 5387,
      "ĠÐ¼Ñĭ": 5388,
      "oyal": 5389,
      "ĠÐ¼ÐµÐ½Ñı": 5390,
      "Ġvirtual": 5391,
      "ĠChina": 5392,
      "ĠWest": 5393,
      "àµĭ": 5394,
      "Ö´": 5395,
      "ÑĥÐ¿": 5396,
      "value": 5397,
      "Ġrepresents": 5398,
      "Ġcelebr": 5399,
      "ĠMaybe": 5400,
      "Ġwild": 5401,
      "anging": 5402,
      "Ġstatus": 5403,
      "Å«": 5404,
      "isp": 5405,
      "ÙĬÙĨ": 5406,
      "ĠSoc": 5407,
      "à¦Ł": 5408,
      "Ġsett": 5409,
      "mas": 5410,
      "Ġcompos": 5411,
      "ĠÃ¡": 5412,
      "Ġclient": 5413,
      "ĠÑģÐ²Ð¾": 5414,
      "ĠPlay": 5415,
      "Ġren": 5416,
      "osen": 5417,
      "Ġtransportation": 5418,
      "Ġcontroll": 5419,
      "áº¡": 5420,
      "opping": 5421,
      "aint": 5422,
      "ĠAng": 5423,
      "Ġeventually": 5424,
      "ĠÐ²ÑģÐµ": 5425,
      "Ġbon": 5426,
      "ella": 5427,
      "cho": 5428,
      "Ġminimum": 5429,
      "rightarrow": 5430,
      "Ġsignificantly": 5431,
      "Ġexistence": 5432,
      "ĠEst": 5433,
      "Ch": 5434,
      "Â°": 5435,
      "Ġfilled": 5436,
      "Ġcore": 5437,
      "Ġsufficient": 5438,
      "ĠLike": 5439,
      "ĠTH": 5440,
      "cription": 5441,
      "Ġheavy": 5442,
      "à§ĭ": 5443,
      "hips": 5444,
      "iers": 5445,
      "Ġà¤¯": 5446,
      "Ġopinion": 5447,
      "ĠPat": 5448,
      "ĠGreat": 5449,
      "Ø§Ø¨": 5450,
      "Ġrefers": 5451,
      "Ġpoor": 5452,
      "ras": 5453,
      "leq": 5454,
      "Ġtechnologies": 5455,
      "Ġsea": 5456,
      "Ġcandid": 5457,
      "ĠFace": 5458,
      "Ġband": 5459,
      "Ġtherm": 5460,
      "Ø¶": 5461,
      "Ġinternational": 5462,
      "Ġexperienced": 5463,
      "matrix": 5464,
      "asy": 5465,
      "Ġdrop": 5466,
      "Ġliqu": 5467,
      "Ġhidden": 5468,
      "date": 5469,
      "being": 5470,
      "Ġpartners": 5471,
      "dule": 5472,
      "$-": 5473,
      "Ġnational": 5474,
      "how": 5475,
      "ÙĪØ¯": 5476,
      "'.": 5477,
      "Ġforest": 5478,
      "Ġclick": 5479,
      "Ġà´ķ": 5480,
      "Ġsituations": 5481,
      "Ġcomplexity": 5482,
      "Ġproced": 5483,
      "Ġdress": 5484,
      "ÑĤÐµ": 5485,
      "asp": 5486,
      "à¸ķ": 5487,
      "Ġorganizations": 5488,
      "hentic": 5489,
      "Ġmut": 5490,
      "ais": 5491,
      "ĠInter": 5492,
      ")(": 5493,
      "Ġtrade": 5494,
      "ln": 5495,
      "Ġos": 5496,
      "ĠTime": 5497,
      "ĠName": 5498,
      "rier": 5499,
      "Ġcontrast": 5500,
      "rat": 5501,
      "Ġspeaking": 5502,
      "venue": 5503,
      "aming": 5504,
      "ĠCommun": 5505,
      "Ġfamiliar": 5506,
      "ded": 5507,
      "Ġcreatures": 5508,
      "Ġstock": 5509,
      "Ġbelief": 5510,
      "You": 5511,
      "ĠVer": 5512,
      "ĠApr": 5513,
      "ä½": 5514,
      "Ġsecret": 5515,
      "oves": 5516,
      "Ġstars": 5517,
      "Ġinteger": 5518,
      "Ġ2015": 5519,
      "Ð¸Ð½Ð°": 5520,
      "vest": 5521,
      "etime": 5522,
      "ĠData": 5523,
      "Ġice": 5524,
      "Ġanx": 5525,
      "Ġcloser": 5526,
      "Ġlibrary": 5527,
      "Ġdiscussion": 5528,
      "Ġwife": 5529,
      "langle": 5530,
      "Ġnh": 5531,
      "Ġsecure": 5532,
      "ĠMr": 5533,
      "Ġpractical": 5534,
      "RE": 5535,
      "ĠPerhaps": 5536,
      "ugh": 5537,
      "36": 5538,
      "aks": 5539,
      "Ġdesire": 5540,
      "eech": 5541,
      "à¥ĩà¤Ĥ": 5542,
      "Ġsac": 5543,
      "Ġeigen": 5544,
      "Ġinternal": 5545,
      "Ġmedic": 5546,
      "ĠAtt": 5547,
      "ĠWhe": 5548,
      "Ð¶Ðµ": 5549,
      "Ġmagical": 5550,
      "Ġthr": 5551,
      "ĠBoth": 5552,
      "ĠTheir": 5553,
      "Ġaircraft": 5554,
      "ructure": 5555,
      "Ġexplanation": 5556,
      "ĠIsrael": 5557,
      "ĠáĥĲáĥ": 5558,
      "Ġstage": 5559,
      "ĠBus": 5560,
      "ria": 5561,
      "Ġpap": 5562,
      "Ġdecide": 5563,
      "Ġengage": 5564,
      "Ġsentences": 5565,
      "ĠÐ³Ð¾Ð´": 5566,
      "arian": 5567,
      "Ġce": 5568,
      "ĠÐ§": 5569,
      "Ġdatab": 5570,
      "Ġsuitable": 5571,
      "Ġestablished": 5572,
      "ĠBest": 5573,
      "Õ¡ÖĢ": 5574,
      "Cl": 5575,
      "ali": 5576,
      "Ġconcepts": 5577,
      "Ġstructures": 5578,
      "ĠTest": 5579,
      "ĠKeep": 5580,
      "Ġstorage": 5581,
      "Ġflo": 5582,
      "ĠUlt": 5583,
      "Ġproperly": 5584,
      "Õ¿": 5585,
      "Ġtension": 5586,
      "Ġfeels": 5587,
      "ĠÅ": 5588,
      "ĠÚ©ÛĴ": 5589,
      "Ġà®®": 5590,
      "Ġstack": 5591,
      "Ġimpossible": 5592,
      "Ġphase": 5593,
      "Ġmissing": 5594,
      "Ġsand": 5595,
      "Ġcircle": 5596,
      "cont": 5597,
      "Î´": 5598,
      "riv": 5599,
      "Ġmaster": 5600,
      "ĠGra": 5601,
      "Ġexploring": 5602,
      "ÑĤÐµÑĢ": 5603,
      "www": 5604,
      "Ġlic": 5605,
      "AD": 5606,
      "Ġrights": 5607,
      "Ġlooked": 5608,
      "ansion": 5609,
      "Ġscientific": 5610,
      "ĠBen": 5611,
      "á»Ļ": 5612,
      "Ð¾Ð±Ñĭ": 5613,
      "ĠAnt": 5614,
      "Ġtransition": 5615,
      "ĠÚ©ÛĮ": 5616,
      "Ġcatch": 5617,
      "Ġunits": 5618,
      ")$.": 5619,
      "Ġfollowed": 5620,
      "}^{": 5621,
      "gu": 5622,
      "ega": 5623,
      "ena": 5624,
      "à¤¥": 5625,
      "Ġfab": 5626,
      "Ġluck": 5627,
      "Ø±ÛĮ": 5628,
      "Ġhuge": 5629,
      "Ġhaven": 5630,
      "agraph": 5631,
      "uary": 5632,
      "icken": 5633,
      "Ġ90": 5634,
      "Ġtor": 5635,
      "rial": 5636,
      "Ġherself": 5637,
      "Ġpriorit": 5638,
      "Ġcells": 5639,
      "Ġfocused": 5640,
      "Ġpron": 5641,
      "Ð°Ñħ": 5642,
      "ĠWind": 5643,
      "Ġanimal": 5644,
      "Ġtu": 5645,
      "Ġstation": 5646,
      "ĠIN": 5647,
      "àµĩ": 5648,
      "ĠHouse": 5649,
      "Ġuma": 5650,
      "ĠtÃ«": 5651,
      "Ġtraffic": 5652,
      "AM": 5653,
      "airs": 5654,
      "Ġmilitary": 5655,
      "Ġefficiency": 5656,
      "ÑĭÐ½": 5657,
      "Ġamaz": 5658,
      "Ø§Ø³": 5659,
      "odies": 5660,
      "Ġtrees": 5661,
      "Ġom": 5662,
      "rim": 5663,
      "Ġarchitect": 5664,
      "Ġtail": 5665,
      "ÑģÑĤÐ°Ð²": 5666,
      "Ġju": 5667,
      "oration": 5668,
      "ĠPerson": 5669,
      "Ġcomo": 5670,
      "Ġwear": 5671,
      "arp": 5672,
      "Ġrecently": 5673,
      "ias": 5674,
      "Ġfamous": 5675,
      "xture": 5676,
      "Ã¼r": 5677,
      "Ġratio": 5678,
      "idth": 5679,
      "Ġinner": 5680,
      "Ġunlike": 5681,
      "Ġcommunities": 5682,
      "Ġwrote": 5683,
      "ÑĥÐ±": 5684,
      "Ġprices": 5685,
      "Ġfill": 5686,
      "à´¸": 5687,
      "Ġhealthcare": 5688,
      "life": 5689,
      "ĠSk": 5690,
      "Ġrestrict": 5691,
      "ĠDavid": 5692,
      "ĠProduct": 5693,
      "ĠÕ¥": 5694,
      "Ġrepresentation": 5695,
      "Ġoperator": 5696,
      "\\\\": 5697,
      "Ġintended": 5698,
      "ashing": 5699,
      "omin": 5700,
      "Ġ29": 5701,
      "ÐµÑĤÑģÑı": 5702,
      "ĠNet": 5703,
      "Ġeth": 5704,
      "issions": 5705,
      "ĠThank": 5706,
      "ÙĪÙĦ": 5707,
      "Ġcontinued": 5708,
      "Ġmanif": 5709,
      "Ø³Øª": 5710,
      "ĠReview": 5711,
      "Ġcop": 5712,
      "ÑģÐ»": 5713,
      "Ġsummer": 5714,
      "icip": 5715,
      "Ġhistorical": 5716,
      "ilit": 5717,
      "ĠAfric": 5718,
      "ĠStre": 5719,
      "ĠUnder": 5720,
      "à¸ª": 5721,
      "ipp": 5722,
      "Ġrough": 5723,
      "Ġwindow": 5724,
      "fl": 5725,
      "Ġwish": 5726,
      "Ġwel": 5727,
      "ĠStar": 5728,
      "Ġreduced": 5729,
      "Ġplatforms": 5730,
      "ĠÑģÐ¼": 5731,
      "Ġsoul": 5732,
      "á»ĩ": 5733,
      "Ġ2020": 5734,
      "Ġingredients": 5735,
      "ffect": 5736,
      "ĠProf": 5737,
      "ael": 5738,
      "Ġpul": 5739,
      "comes": 5740,
      "Ġà®µ": 5741,
      "Ġcivil": 5742,
      "Ġdetailed": 5743,
      "ãĤĮ": 5744,
      "Ø§Ø¦": 5745,
      "Ð¸ÑĩÐµÑģÐº": 5746,
      "Ġcreation": 5747,
      "à®ķà®³": 5748,
      "rol": 5749,
      "ĠØ¨Ùĩ": 5750,
      "ĠØ§ÛĮ": 5751,
      "Ġvs": 5752,
      "char": 5753,
      "Ġconfig": 5754,
      "Ġprofession": 5755,
      "Ġchallenging": 5756,
      "hern": 5757,
      "free": 5758,
      "box": 5759,
      "ĠÐ¼Ð¾Ð³": 5760,
      "OU": 5761,
      "NA": 5762,
      "Ġphen": 5763,
      "Ġadult": 5764,
      "istry": 5765,
      "Ð¾Ð²Ð°": 5766,
      "Ġraise": 5767,
      "Ġacqu": 5768,
      "ĠÙĥ": 5769,
      "Ġcauses": 5770,
      "ĠÐ´ÐµÐ»": 5771,
      "ko": 5772,
      "Ġkeeping": 5773,
      "åĲ": 5774,
      "ulated": 5775,
      "Ġconsult": 5776,
      "ĠÐ»Ñİ": 5777,
      "Ġpet": 5778,
      "Ġprinciple": 5779,
      "Ġ%": 5780,
      "Ġscore": 5781,
      "ris": 5782,
      "Ġhttp": 5783,
      "ĠAmerica": 5784,
      "Ġpurchase": 5785,
      "OS": 5786,
      "bal": 5787,
      "iter": 5788,
      "allel": 5789,
      "Ġhence": 5790,
      "Ġentirely": 5791,
      "}=": 5792,
      "uting": 5793,
      "Ð°Ð½Ð¸Ñı": 5794,
      "çĶ": 5795,
      "ercial": 5796,
      "ãĤ¹": 5797,
      "ĠAltern": 5798,
      "Ġborn": 5799,
      "ĠPlan": 5800,
      "ĠÒĽ": 5801,
      "Ġcomplic": 5802,
      "Ġcards": 5803,
      "Ġerrors": 5804,
      "ĠRet": 5805,
      "ĠThanks": 5806,
      "can": 5807,
      "aker": 5808,
      "ÎµÎ¹": 5809,
      "ĠSept": 5810,
      "Ġ2011": 5811,
      "Ġextremely": 5812,
      "]$": 5813,
      "Ġconven": 5814,
      "ĠÐ¸Ð»Ð¸": 5815,
      "ford": 5816,
      "ĠÑģÐ°Ð¼": 5817,
      "Ã¤n": 5818,
      "Ġpossibly": 5819,
      "vere": 5820,
      "ÑĹ": 5821,
      "Ð¾ÑĪ": 5822,
      "Ġwat": 5823,
      "onom": 5824,
      "Ð»Ñİ": 5825,
      "====": 5826,
      "Ġcert": 5827,
      "arant": 5828,
      "ĠÐ´Ð¾Ð»": 5829,
      "Ð¸ÑĪ": 5830,
      "ĠMich": 5831,
      "Ġsty": 5832,
      "Ġcreates": 5833,
      "Ġtechnique": 5834,
      "Ġthread": 5835,
      "44": 5836,
      "quality": 5837,
      "count": 5838,
      "Ġpossibility": 5839,
      "Ġannoun": 5840,
      "jective": 5841,
      "Ġcurve": 5842,
      "Ġrise": 5843,
      "Ġtrig": 5844,
      "Ġillust": 5845,
      "Ġholds": 5846,
      "mi": 5847,
      "Ġpassed": 5848,
      "Ġ×©×ľ": 5849,
      "lines": 5850,
      "áĥļ": 5851,
      "una": 5852,
      "32": 5853,
      "Ġmanner": 5854,
      "Ġroots": 5855,
      "Ġemployee": 5856,
      "ancing": 5857,
      "ÑĤÐ°": 5858,
      "ĠJe": 5859,
      "stood": 5860,
      "Ġmanip": 5861,
      "Ġsugar": 5862,
      "à®ļ": 5863,
      "Ð½ÑĭÐ¼": 5864,
      "Ġpolice": 5865,
      "ĠIndia": 5866,
      "Ġcream": 5867,
      "Ġopposite": 5868,
      "Ġincreases": 5869,
      "Ã¡n": 5870,
      "Ġcorresponding": 5871,
      "ĠDM": 5872,
      "Ġpatient": 5873,
      "dy": 5874,
      "Ġconnections": 5875,
      "Ġcarefully": 5876,
      "II": 5877,
      "anged": 5878,
      "Ð¾ÑģÑģ": 5879,
      "!\"": 5880,
      "Ġindicate": 5881,
      "Ġstronger": 5882,
      "Ġolder": 5883,
      "Ġ80": 5884,
      "Ġdownload": 5885,
      "Ġhoriz": 5886,
      "ÑĺÐ°": 5887,
      "Ġmagnetic": 5888,
      "Ġcredit": 5889,
      "ilies": 5890,
      "Ġexternal": 5891,
      "ems": 5892,
      "à§Ģ": 5893,
      "Ġmobile": 5894,
      "Ġimagine": 5895,
      "Ġtrick": 5896,
      "Ġlogic": 5897,
      "gin": 5898,
      "Ġamb": 5899,
      "Ġlose": 5900,
      "Ġdriving": 5901,
      "Ġviews": 5902,
      "Ð´Ñĭ": 5903,
      "ocation": 5904,
      "ĠAlthough": 5905,
      "Ġends": 5906,
      "ait": 5907,
      "house": 5908,
      "orb": 5909,
      "ker": 5910,
      "Ġ2010": 5911,
      "ÙĲ": 5912,
      "aughter": 5913,
      "Ð°Ð±Ð¾ÑĤ": 5914,
      "à¦ª": 5915,
      "à¹ģ": 5916,
      "Ġbath": 5917,
      "ĠFree": 5918,
      "eting": 5919,
      "zer": 5920,
      "Ġobvious": 5921,
      "Ġparagraph": 5922,
      "æĸ": 5923,
      "Ġdiss": 5924,
      "ĠFacebook": 5925,
      "ĠPeople": 5926,
      "Ġloved": 5927,
      "band": 5928,
      "Ġahead": 5929,
      "Ġprotection": 5930,
      "Ġprepared": 5931,
      "ÚĨ": 5932,
      "ĠSimilar": 5933,
      "porary": 5934,
      "itness": 5935,
      "Ġhop": 5936,
      "ifies": 5937,
      "ĠCho": 5938,
      "Ø°": 5939,
      "Ġdisease": 5940,
      "Ġisol": 5941,
      "Ġpaint": 5942,
      "à¤¾à¤Ĥ": 5943,
      "ĠBro": 5944,
      "Ġhighest": 5945,
      "Ġmostly": 5946,
      "ĠChristian": 5947,
      "Ġlanguages": 5948,
      "zon": 5949,
      "Ġbattle": 5950,
      "ÑģÑĤÑĮ": 5951,
      "Ġcooking": 5952,
      "Ġodd": 5953,
      "ishes": 5954,
      "ÑĥÑĪ": 5955,
      "Ġconvey": 5956,
      "ĠLastly": 5957,
      "edom": 5958,
      "Ġcomprehensive": 5959,
      "Ġexhib": 5960,
      "Ġcircumst": 5961,
      "ìĹĲ": 5962,
      "Ġiter": 5963,
      "ĠHave": 5964,
      "friendly": 5965,
      "unning": 5966,
      "ĠÐ¼Ð½Ðµ": 5967,
      "Ġcheese": 5968,
      "Ġhelping": 5969,
      "Ġphotos": 5970,
      "rror": 5971,
      "ogue": 5972,
      "PS": 5973,
      "95": 5974,
      "Ġthrow": 5975,
      "Ġgal": 5976,
      "ãĥ¼ãĥ": 5977,
      "ĠAustral": 5978,
      "rum": 5979,
      "ÑģÑĤÐ²Ð¾": 5980,
      "Ġexcl": 5981,
      "ĠMarch": 5982,
      "Ġsauce": 5983,
      "Ġmedium": 5984,
      "Ġsyn": 5985,
      "ĠPC": 5986,
      "Ġreviews": 5987,
      "Ġserious": 5988,
      "Ġauthentic": 5989,
      "ipping": 5990,
      "hetic": 5991,
      "Ġattend": 5992,
      "eline": 5993,
      "Ġestim": 5994,
      "eters": 5995,
      "Ġstatist": 5996,
      "Ġphilosoph": 5997,
      "àµģà´Ĥ": 5998,
      "ĠCenter": 5999,
      "ĠÐºÐ¾Ð¼": 6000,
      "ĠÚ¯": 6001,
      "Ġbright": 6002,
      "Ġweapon": 6003,
      "cean": 6004,
      "Ġconcise": 6005,
      "ĠÐºÑĢ": 6006,
      "Ġpassion": 6007,
      "Ġhous": 6008,
      "ĠFeb": 6009,
      "Ġprocessing": 6010,
      "ĠÐ´Ð¾": 6011,
      "ello": 6012,
      "ĠBritish": 6013,
      "sole": 6014,
      "48": 6015,
      "otic": 6016,
      "Ġast": 6017,
      "ÑĥÑģ": 6018,
      "aper": 6019,
      "Ð¾ÑĢÐ¼": 6020,
      "Ġpray": 6021,
      "×ĸ": 6022,
      "Ġteaching": 6023,
      "ĠDesign": 6024,
      "ĠWhere": 6025,
      "Ġune": 6026,
      "Ġperm": 6027,
      "Ġapproaches": 6028,
      "Ġshowing": 6029,
      "Ġdegrees": 6030,
      "Ġrain": 6031,
      "iance": 6032,
      "Ġzu": 6033,
      "×ķ×ľ": 6034,
      "Ġlayer": 6035,
      "Ġshowc": 6036,
      "Ġturns": 6037,
      "Ġmill": 6038,
      "Ð½Ð¸Ð¼": 6039,
      "sm": 6040,
      "Ġvast": 6041,
      "Ġrent": 6042,
      "ĠChurch": 6043,
      "65": 6044,
      "Ġmiles": 6045,
      "Ġinvestment": 6046,
      "Ġanalyze": 6047,
      "ĠGal": 6048,
      "Ðŀ": 6049,
      "á¹": 6050,
      "Ġgather": 6051,
      "Ġdiscover": 6052,
      "Ġrank": 6053,
      "Ġmere": 6054,
      "Ġseeing": 6055,
      "Ġrisks": 6056,
      "ĠSl": 6057,
      "ĠHome": 6058,
      "Ġindu": 6059,
      "à¤ı": 6060,
      "Ġreasonable": 6061,
      "ht": 6062,
      "ìĦ": 6063,
      "Ùı": 6064,
      "Ġforg": 6065,
      "ĠSan": 6066,
      "Ġrap": 6067,
      "Ġgenerated": 6068,
      "ran": 6069,
      "Ġworry": 6070,
      "rem": 6071,
      "Ġpatients": 6072,
      "::": 6073,
      "ads": 6074,
      "Ġcontrad": 6075,
      "ĠÐ¿ÑĢÐ°Ð²": 6076,
      "Ġmath": 6077,
      "Ġreson": 6078,
      "Ġseek": 6079,
      "áº£": 6080,
      "ey": 6081,
      "Ġsoil": 6082,
      "ondon": 6083,
      "Ex": 6084,
      "ĠResearch": 6085,
      "Ġsen": 6086,
      "Ġmanager": 6087,
      "vi": 6088,
      "ĠJune": 6089,
      "Ġnavigate": 6090,
      "ados": 6091,
      "ratic": 6092,
      "pass": 6093,
      "des": 6094,
      "ober": 6095,
      "Ġoperation": 6096,
      "Ġ×ł": 6097,
      "ĠTop": 6098,
      "Ġvolt": 6099,
      "Ġforget": 6100,
      "ĠHam": 6101,
      "78": 6102,
      "olf": 6103,
      "Ġoccas": 6104,
      "This": 6105,
      "ĠLat": 6106,
      "stract": 6107,
      "Ġmemories": 6108,
      "Ġthous": 6109,
      "Ġproduced": 6110,
      "Ġentry": 6111,
      "Õ¡ÖĢÕ": 6112,
      ")}": 6113,
      "Ġfant": 6114,
      "urrent": 6115,
      "ben": 6116,
      "Ġdatas": 6117,
      "utation": 6118,
      "Ġengagement": 6119,
      "Ġvul": 6120,
      "Ġskill": 6121,
      "íķĺ": 6122,
      "Ġbrother": 6123,
      "Ġcontribute": 6124,
      "':": 6125,
      "uries": 6126,
      "ĠpÃ¥": 6127,
      "ĠÏĦÎ·": 6128,
      "Ġmilk": 6129,
      "Ġremaining": 6130,
      "ìł": 6131,
      "ĠGreen": 6132,
      "Ġseemed": 6133,
      "Ġrealized": 6134,
      "ìĿĺ": 6135,
      "ifications": 6136,
      "ĠNews": 6137,
      "Ġcorrectly": 6138,
      "Ġbot": 6139,
      "ÙĩØ§": 6140,
      "Ġafford": 6141,
      "\\,": 6142,
      "ba": 6143,
      "Ġsharing": 6144,
      "eless": 6145,
      "inn": 6146,
      "ĠIts": 6147,
      "ĠList": 6148,
      "Ġlandsc": 6149,
      "ÐµÑģÑĮ": 6150,
      "ĠÑĢÐ°Ñģ": 6151,
      "Ġcausing": 6152,
      "Ġepis": 6153,
      "Ġinterpretation": 6154,
      "Ġfulf": 6155,
      "Ġincome": 6156,
      "Ġinternet": 6157,
      "Ġresistance": 6158,
      "01": 6159,
      "ĠBel": 6160,
      "Ġpages": 6161,
      "Ġdas": 6162,
      "Ġoutcomes": 6163,
      "ĠHol": 6164,
      "Ġincred": 6165,
      "ĠHot": 6166,
      "tenance": 6167,
      "Ġchoices": 6168,
      "Ġdestroy": 6169,
      "ĠInternational": 6170,
      "atically": 6171,
      "ĠÑĤÑĢ": 6172,
      "ĠÂ£": 6173,
      "Ġsuggestions": 6174,
      "(-": 6175,
      "^*": 6176,
      "ommod": 6177,
      "ãģĭ": 6178,
      "ĠØ¹ÙĦ": 6179,
      "Ġstrict": 6180,
      "Ġvir": 6181,
      "Ġframew": 6182,
      "ĠFind": 6183,
      "iform": 6184,
      "à®¨": 6185,
      "Ġfirm": 6186,
      "Ġacademic": 6187,
      "ĠSecond": 6188,
      "rics": 6189,
      "ĠApril": 6190,
      "ĠGerman": 6191,
      "Ġfilter": 6192,
      "Ġà®ħ": 6193,
      "Ġlargest": 6194,
      "Ġca": 6195,
      "Ġfish": 6196,
      "Ġmeat": 6197,
      "Ġupdated": 6198,
      "pected": 6199,
      "Ġadvert": 6200,
      "Ġtells": 6201,
      "ptions": 6202,
      "ku": 6203,
      "Ġperfectly": 6204,
      "Ġexpertise": 6205,
      "Ġlisten": 6206,
      "55": 6207,
      "field": 6208,
      "Ġcommonly": 6209,
      "Ġsusp": 6210,
      "ĠJames": 6211,
      "Ġknowing": 6212,
      "ĠAugust": 6213,
      "well": 6214,
      "ola": 6215,
      "ĠSarah": 6216,
      "Ġfly": 6217,
      "ĠGiven": 6218,
      "Ġbelong": 6219,
      "Ġcontinues": 6220,
      "ĠVol": 6221,
      "lement": 6222,
      "Ġrace": 6223,
      "Ġcycle": 6224,
      "Ġstret": 6225,
      "Ġshift": 6226,
      "utive": 6227,
      "hors": 6228,
      "ĠCour": 6229,
      "Ġuns": 6230,
      "Ġtransformation": 6231,
      "`.": 6232,
      "Ġdish": 6233,
      "`,": 6234,
      "Ġcapital": 6235,
      "Ġliquid": 6236,
      "olved": 6237,
      "Ġcalls": 6238,
      "Ġattrib": 6239,
      "ĠPresident": 6240,
      "Ġchat": 6241,
      "poses": 6242,
      "Ġmagn": 6243,
      "Ġclassical": 6244,
      "Ġjoin": 6245,
      "ĠÐ¾Ñģ": 6246,
      "ivery": 6247,
      "Ġcities": 6248,
      "Ġderivative": 6249,
      "Ġmission": 6250,
      "Ġreleased": 6251,
      "Ġeconomy": 6252,
      "Ġgone": 6253,
      "________": 6254,
      "Ġmicro": 6255,
      "Ġrecip": 6256,
      "Ġschedule": 6257,
      "Ġtables": 6258,
      "cil": 6259,
      "rated": 6260,
      "ĠWork": 6261,
      "ĠÐ´ÑĢÑĥÐ³": 6262,
      "ĠClass": 6263,
      "ette": 6264,
      "ĠEmily": 6265,
      "ressive": 6266,
      "Ġdomain": 6267,
      "SS": 6268,
      "iner": 6269,
      "oses": 6270,
      "ĠGreek": 6271,
      "ãģĨ": 6272,
      "ĠTry": 6273,
      "ĠId": 6274,
      "Ġwaves": 6275,
      "Ġtight": 6276,
      "Ġà¦ı": 6277,
      "Ġbonus": 6278,
      "Ġparallel": 6279,
      "Ġpaid": 6280,
      "data": 6281,
      "ĠBre": 6282,
      "ĠáĥĴ": 6283,
      "à¸Ħ": 6284,
      "Ġregarding": 6285,
      "ett": 6286,
      "uman": 6287,
      "Ġà¤ī": 6288,
      "ĠWho": 6289,
      "×Ļ×Ķ": 6290,
      "34": 6291,
      "Ġà®¤": 6292,
      "Ġbecoming": 6293,
      "Ġupper": 6294,
      "Ġexpensive": 6295,
      "Ġdeliver": 6296,
      "Ġvideos": 6297,
      "ðŁ": 6298,
      "ĠEv": 6299,
      "Ġstated": 6300,
      "Ġpotentially": 6301,
      "ati": 6302,
      "Ġcapacity": 6303,
      "Ġlots": 6304,
      "Ġanxiety": 6305,
      "ìĿĦ": 6306,
      "Ġwidely": 6307,
      "Ġhonest": 6308,
      "Ø«": 6309,
      "ederal": 6310,
      "à®£": 6311,
      "subset": 6312,
      "Ġclassic": 6313,
      "Ð°Ð½Ð¸Ðµ": 6314,
      "Ġspeech": 6315,
      "05": 6316,
      "orrow": 6317,
      "level": 6318,
      "ĠâĢŀ": 6319,
      "Ġ&=": 6320,
      "Ð»ÐµÐ½": 6321,
      "Ġteach": 6322,
      "Ġhosp": 6323,
      "RO": 6324,
      "Ġjournal": 6325,
      "Ġstrange": 6326,
      "Ġbread": 6327,
      "agonist": 6328,
      "ĠDespite": 6329,
      "Ġimplementation": 6330,
      "rip": 6331,
      "rastructure": 6332,
      "rak": 6333,
      "Ġplastic": 6334,
      "Ġphenomen": 6335,
      "ĠPal": 6336,
      "Ġà´µ": 6337,
      "oles": 6338,
      "abil": 6339,
      "Ġshop": 6340,
      "Ġcircuit": 6341,
      "plo": 6342,
      "Ġdisp": 6343,
      "Ġupdate": 6344,
      "Ġcovered": 6345,
      "ĠSum": 6346,
      "Ġcommunicate": 6347,
      "Ġvehicle": 6348,
      "inations": 6349,
      "ĠAN": 6350,
      "Ġdisapp": 6351,
      "Ġgeometry": 6352,
      "ĠGroup": 6353,
      "Ġfashion": 6354,
      "Ã¡l": 6355,
      "oto": 6356,
      "ache": 6357,
      "Ġdomin": 6358,
      "ĠØ§ÙĪ": 6359,
      "Ġimplications": 6360,
      "Ġspells": 6361,
      "38": 6362,
      "Ġinteractions": 6363,
      "ÐµÑĤÐµ": 6364,
      "ĠSocial": 6365,
      "Ġcitiz": 6366,
      "ido": 6367,
      "path": 6368,
      "Ġusual": 6369,
      "ĠÃ¼": 6370,
      "ora": 6371,
      "áĥĶáĥļ": 6372,
      "Ã¡t": 6373,
      "ÑĭÐ»": 6374,
      "Ġchosen": 6375,
      "Ġsignal": 6376,
      "ĠJuly": 6377,
      "Ġintelligence": 6378,
      "Ġnode": 6379,
      "Ġfiles": 6380,
      "ĠTwo": 6381,
      "antic": 6382,
      "ints": 6383,
      "Ġelectrons": 6384,
      "Ġincl": 6385,
      "Ġ~": 6386,
      "ĠHist": 6387,
      "Ġbutter": 6388,
      "Ġrecipe": 6389,
      "ĠWikipedia": 6390,
      "Ġinnovative": 6391,
      "fit": 6392,
      "ĠLondon": 6393,
      "64": 6394,
      "ĠJo": 6395,
      "Ġjobs": 6396,
      "Ġuncertain": 6397,
      "Ġproport": 6398,
      "Ġdatabase": 6399,
      "Ġattacks": 6400,
      "Õ¨": 6401,
      "Ġindicates": 6402,
      "ĠÂ»": 6403,
      "Ġmanufacture": 6404,
      "ĠSur": 6405,
      "Ġhotel": 6406,
      "ĠAC": 6407,
      "Õ¸ÖĤÕ©": 6408,
      "going": 6409,
      "à¯ĩ": 6410,
      "ĠPort": 6411,
      "ÐºÐµ": 6412,
      "Ġmixture": 6413,
      "works": 6414,
      "ĠProv": 6415,
      "itar": 6416,
      "ativ": 6417,
      "ĠOpen": 6418,
      "37": 6419,
      "Ġrelation": 6420,
      "Ġopening": 6421,
      "Ġunderlying": 6422,
      "á»ĳ": 6423,
      "estern": 6424,
      "iom": 6425,
      "ĠBas": 6426,
      "Ġadminist": 6427,
      "Ġconj": 6428,
      "gl": 6429,
      "39": 6430,
      "Ġpreferences": 6431,
      "ĠFurthermore": 6432,
      "illa": 6433,
      "coming": 6434,
      "ighter": 6435,
      "tau": 6436,
      "ala": 6437,
      "Ġapproximately": 6438,
      "orge": 6439,
      "ĠDan": 6440,
      "ĠGen": 6441,
      "ÏĦÎ±": 6442,
      "iy": 6443,
      "ags": 6444,
      "Ġdiscovered": 6445,
      "ĠLear": 6446,
      "ortunately": 6447,
      "ua": 6448,
      "df": 6449,
      "Ġrom": 6450,
      "ĠBusiness": 6451,
      "Ġisland": 6452,
      "ÑĤÐ¾Ð±Ñĭ": 6453,
      "Ġtang": 6454,
      "ÑģÑĤÐ²ÐµÐ½": 6455,
      "Ġreported": 6456,
      "Ġpil": 6457,
      "à¸«": 6458,
      "Ġcy": 6459,
      "ĠView": 6460,
      "BC": 6461,
      "ĠìĿ": 6462,
      "Ġvon": 6463,
      "Ġrenewable": 6464,
      "Ġneutral": 6465,
      "Ġfamilies": 6466,
      "Ġresist": 6467,
      "Ġprogramming": 6468,
      "Ġconfidence": 6469,
      "Ġdoubt": 6470,
      "Ġ70": 6471,
      "Ġguidance": 6472,
      "Ġclimb": 6473,
      "ĠÐ¿Ð¾ÑĤ": 6474,
      "ĠForm": 6475,
      "Ġsomewhat": 6476,
      "Ġlaunch": 6477,
      "Ġlinked": 6478,
      "amin": 6479,
      "Ġcompact": 6480,
      "Ġsky": 6481,
      "Ġunderstood": 6482,
      "inese": 6483,
      "Ġultimately": 6484,
      "Ġnormally": 6485,
      "ĠDuring": 6486,
      "ĠSen": 6487,
      "Ġvoc": 6488,
      "Ġdiet": 6489,
      "Ġmyst": 6490,
      "ĠMor": 6491,
      "Ġfinish": 6492,
      "Ġcareful": 6493,
      "ĠÐ¤": 6494,
      "Ġmine": 6495,
      "ĠÕ§": 6496,
      "Ġgarden": 6497,
      "Ġtow": 6498,
      "Ġmir": 6499,
      "Ġvibr": 6500,
      "ë¡": 6501,
      "kl": 6502,
      "using": 6503,
      "arter": 6504,
      "ĠMet": 6505,
      "ca": 6506,
      "ĠMax": 6507,
      "ju": 6508,
      "Ġboy": 6509,
      "Î¹Î±": 6510,
      "ĠSuper": 6511,
      "Ġpurposes": 6512,
      "Ġneighbor": 6513,
      "raction": 6514,
      "Ġscrew": 6515,
      "Ġensuring": 6516,
      "Ġbasically": 6517,
      "ÛĶ": 6518,
      "Ġà®ĩ": 6519,
      "Ġseeking": 6520,
      "ĠDel": 6521,
      "IL": 6522,
      "Ġfruit": 6523,
      "ãĥĪ": 6524,
      "Ġremoved": 6525,
      "Ġstandards": 6526,
      "ĠÕ´": 6527,
      "Ġcompare": 6528,
      "ĠÙĪØ§ÙĦ": 6529,
      "Ð½Ð°Ñı": 6530,
      "Ġextract": 6531,
      "Ð²Ð¾": 6532,
      "Õ¥Õ¬": 6533,
      "rets": 6534,
      "Ġske": 6535,
      "quad": 6536,
      "Ġreliable": 6537,
      "Ġessay": 6538,
      "Ġprotein": 6539,
      "Ġrig": 6540,
      "Ġsplit": 6541,
      "Ġbaby": 6542,
      "Ġtrends": 6543,
      "orial": 6544,
      "that": 6545,
      "rot": 6546,
      "Ġtopics": 6547,
      "Ġwalking": 6548,
      "ĠÐ¾Ð¿": 6549,
      "ĠBudd": 6550,
      "Ġdimension": 6551,
      "Ġentre": 6552,
      "Ġexchange": 6553,
      "Ġintu": 6554,
      "Ð¸Ð»Ð°": 6555,
      "Ġvulner": 6556,
      "Ġgrant": 6557,
      "cap": 6558,
      "Ġtrad": 6559,
      "rary": 6560,
      "enced": 6561,
      "Ġintegers": 6562,
      "Ġremote": 6563,
      "ĠWater": 6564,
      "ĠPM": 6565,
      "Ġresearc": 6566,
      "Ġist": 6567,
      "sim": 6568,
      "Ġmur": 6569,
      "door": 6570,
      "rence": 6571,
      "Ġprepar": 6572,
      "group": 6573,
      "Ġaccommod": 6574,
      "ompl": 6575,
      "Ġur": 6576,
      "Ġà®ļ": 6577,
      "Ġhund": 6578,
      "Ġwine": 6579,
      "Ð»Ðµ": 6580,
      "water": 6581,
      "Ġoccurs": 6582,
      "unte": 6583,
      "}$,": 6584,
      "def": 6585,
      "ĠÐ½Ð°Ð¿": 6586,
      "Ġholding": 6587,
      "Ð´Ñĥ": 6588,
      "Ġmechanics": 6589,
      "Ġcircumstances": 6590,
      "ĠOctober": 6591,
      "Ġleader": 6592,
      "ĠÐŃÑĤÐ¾": 6593,
      "dimensional": 6594,
      "ĠAM": 6595,
      "ĠØ¥": 6596,
      "rain": 6597,
      "Ð²ÐµÑĢ": 6598,
      "ĠDem": 6599,
      "Ġrul": 6600,
      "edding": 6601,
      "ĠÐ¢Ñĭ": 6602,
      "Ġ2009": 6603,
      "iate": 6604,
      "Ġserver": 6605,
      "Ġye": 6606,
      "Ġell": 6607,
      "Ġlie": 6608,
      "Ġimmers": 6609,
      "ige": 6610,
      "Ġdedicated": 6611,
      "ĠSeptember": 6612,
      "ĠTom": 6613,
      "Ïİ": 6614,
      "Ġ35": 6615,
      "Ġarrange": 6616,
      "mp": 6617,
      "Ð´ÐµÐ»": 6618,
      "Ġintent": 6619,
      "Ġpolicies": 6620,
      "file": 6621,
      "flow": 6622,
      "ĠTod": 6623,
      "ÛĮÙĨ": 6624,
      "ĠÐ¿Ð¾Ð¼": 6625,
      "ĠÃ¾": 6626,
      "Ġimproved": 6627,
      "Ġinsurance": 6628,
      "hr": 6629,
      "ê°": 6630,
      "ĠStr": 6631,
      "ĠInf": 6632,
      "ĠWhite": 6633,
      "áĥĵ": 6634,
      "ÑĭÑħ": 6635,
      "Ġkept": 6636,
      "Ġwaiting": 6637,
      "Ġshad": 6638,
      "itors": 6639,
      "ĠÐ¶Ðµ": 6640,
      "Ġselection": 6641,
      "Ġvision": 6642,
      "EO": 6643,
      "Ġatom": 6644,
      "Ġmoved": 6645,
      "Ġaz": 6646,
      "æĹ": 6647,
      "Ġbattery": 6648,
      "à¦¶": 6649,
      "Ġdespite": 6650,
      "Ġstable": 6651,
      "Ġschools": 6652,
      "Ġwalls": 6653,
      "Ġbes": 6654,
      "Ò±": 6655,
      "olt": 6656,
      "Ġinterval": 6657,
      "ĠTor": 6658,
      "Ġ×Ķ×ŀ": 6659,
      "Ġdiverse": 6660,
      "Ġarbit": 6661,
      "ĠJanuary": 6662,
      "ĠÐ¼Ð¾": 6663,
      "Ġinterse": 6664,
      "Ġrational": 6665,
      "ented": 6666,
      "US": 6667,
      "Ġhypothes": 6668,
      "Ġfreedom": 6669,
      "Ġdescript": 6670,
      "iled": 6671,
      "Õ¾": 6672,
      "fered": 6673,
      "fulness": 6674,
      "Ġprompt": 6675,
      "Ġsupposed": 6676,
      "Ġnumerous": 6677,
      "Ġamazing": 6678,
      "ĠFol": 6679,
      "ml": 6680,
      "Ġlogical": 6681,
      "Ġmode": 6682,
      "ovember": 6683,
      "ĠÐ¥": 6684,
      "cember": 6685,
      "Ġessentially": 6686,
      "rame": 6687,
      "Ġtur": 6688,
      "Ġdoll": 6689,
      "ĠMart": 6690,
      "Ġà¦®": 6691,
      "AP": 6692,
      "ĠConst": 6693,
      "Ġphrases": 6694,
      "Ġhus": 6695,
      "Ġgravit": 6696,
      "Ġorbit": 6697,
      "ĠFriday": 6698,
      "66": 6699,
      "fol": 6700,
      "ĠProgram": 6701,
      "ĠÑĺÐµ": 6702,
      "Ġfest": 6703,
      "och": 6704,
      "Ġgift": 6705,
      "ìŀ": 6706,
      "izz": 6707,
      "×Ļ×ł": 6708,
      "Ġlock": 6709,
      "ĠCustom": 6710,
      "standing": 6711,
      "ãĤ¤": 6712,
      "Ġnearly": 6713,
      "ilding": 6714,
      "Ġsuggested": 6715,
      "Ã±": 6716,
      "Ġgun": 6717,
      "osure": 6718,
      "ING": 6719,
      "ĠØ§ÙĨ": 6720,
      "otal": 6721,
      "'(": 6722,
      "itt": 6723,
      "Error": 6724,
      "Ġinfrastructure": 6725,
      "incip": 6726,
      "Ð½Ð¾ÑģÑĤÐ¸": 6727,
      "Ġanti": 6728,
      "Ġslowly": 6729,
      "ÅĽ": 6730,
      "Ġexpectations": 6731,
      "Ġjump": 6732,
      "aked": 6733,
      "lock": 6734,
      "Ġ31": 6735,
      "Ġdynamic": 6736,
      "Ġspring": 6737,
      "ĠHence": 6738,
      "Õ¸ÖĤÕ©Õµ": 6739,
      "Ġtap": 6740,
      "ĠHel": 6741,
      "âĪ": 6742,
      "ricult": 6743,
      "ĠCounty": 6744,
      "Ö¹": 6745,
      "Ġfeat": 6746,
      "elines": 6747,
      "real": 6748,
      "Ġescape": 6749,
      "Ġfairly": 6750,
      "ĠÐ²ÑĢÐµÐ¼": 6751,
      "Ġkitchen": 6752,
      "ĠWhich": 6753,
      "Ġstanding": 6754,
      "ÐµÑħ": 6755,
      "Ġevil": 6756,
      "Ġcommitted": 6757,
      "Ġpros": 6758,
      "nab": 6759,
      "áĥĽ": 6760,
      "Ġgeneration": 6761,
      "Ġchart": 6762,
      "Ġshot": 6763,
      "Ġsites": 6764,
      "Ġguarant": 6765,
      "Ðĺ": 6766,
      "Ġà´¸": 6767,
      "world": 6768,
      "Ġå": 6769,
      "Ġcoun": 6770,
      "Ó©": 6771,
      "Ġaffected": 6772,
      "ĠÛĮ": 6773,
      "Ġpas": 6774,
      "Ãµes": 6775,
      "Ġapparent": 6776,
      "Ġcompound": 6777,
      "ĠØ§Ø²": 6778,
      "Ġgent": 6779,
      "Ð½Ð¾Ð¼": 6780,
      "encing": 6781,
      "uous": 6782,
      "à¤Ń": 6783,
      "Ġchicken": 6784,
      "sl": 6785,
      "ÏĦÎ¿": 6786,
      "apping": 6787,
      "Ġoutcome": 6788,
      "Ġthin": 6789,
      "Ġou": 6790,
      "ban": 6791,
      "car": 6792,
      "Ġbutton": 6793,
      "Ġstatements": 6794,
      "----------------": 6795,
      "ĠIS": 6796,
      "Ġpanel": 6797,
      "iration": 6798,
      "Ġclaims": 6799,
      "Ġputting": 6800,
      "Ġradius": 6801,
      "ista": 6802,
      "áº¥": 6803,
      "Ġplenty": 6804,
      "Ġaccompl": 6805,
      "Å¼": 6806,
      "Ġarguments": 6807,
      "ĠÐ²Ð¾Ð·": 6808,
      "Ġinteraction": 6809,
      "×Ļ×Ł": 6810,
      "ĠDown": 6811,
      "Ġfan": 6812,
      "Ġartists": 6813,
      "ĠService": 6814,
      "Ġauthority": 6815,
      "izer": 6816,
      "Ġìŀ": 6817,
      "Ġprotagonist": 6818,
      "ĠÎ´": 6819,
      "Ġkilled": 6820,
      "Ġphoto": 6821,
      "ville": 6822,
      "Ġbrief": 6823,
      "ĠMond": 6824,
      "dt": 6825,
      "áĥĲáĥĽ": 6826,
      "Ġdecor": 6827,
      "eq": 6828,
      "Ø¦": 6829,
      "Ġteams": 6830,
      "ĠEuropean": 6831,
      "cknow": 6832,
      "}(\\": 6833,
      "Ġmoves": 6834,
      "Ġweapons": 6835,
      "He": 6836,
      "ĠUltimately": 6837,
      "Ġcommitment": 6838,
      "oz": 6839,
      "Ġlabel": 6840,
      "Ġ45": 6841,
      "ĠÑĩÑĤÐ¾Ð±Ñĭ": 6842,
      "Ġrevenue": 6843,
      "ĠID": 6844,
      "ship": 6845,
      "rive": 6846,
      "Ġka": 6847,
      "spec": 6848,
      "Ġexperim": 6849,
      "Ġeating": 6850,
      "Ġcapable": 6851,
      "enly": 6852,
      "Ġlimits": 6853,
      "Ġhabit": 6854,
      "mes": 6855,
      "Ġadds": 6856,
      "wide": 6857,
      "ĠÐ·Ð°Ð¿": 6858,
      "Ġdangerous": 6859,
      ")$,": 6860,
      "Ġmaintenance": 6861,
      "Ġtranslation": 6862,
      "Ġ2008": 6863,
      "ĠYear": 6864,
      "Ġped": 6865,
      "ãĤĬ": 6866,
      "Ġwealth": 6867,
      "Ġpossess": 6868,
      "Ġhun": 6869,
      "ĠDi": 6870,
      "Ġnone": 6871,
      "Ġtests": 6872,
      "Ġbodies": 6873,
      "ĠSal": 6874,
      "Ġlabor": 6875,
      "Ġrestaurant": 6876,
      "Ã¡c": 6877,
      "ÑıÐ²": 6878,
      "Ã²": 6879,
      "gment": 6880,
      "Ġà¤¶": 6881,
      "Ġbehavi": 6882,
      "Ġ×Ĺ": 6883,
      "ÑĭÐ¼": 6884,
      "array": 6885,
      "Ġquote": 6886,
      "();": 6887,
      "ĠMa": 6888,
      "ÐµÐ»Ð¸": 6889,
      "you": 6890,
      "ĠAlternatively": 6891,
      "ĠÅ¾": 6892,
      "ÐµÐµ": 6893,
      "ĠElect": 6894,
      "Ġoffered": 6895,
      "ji": 6896,
      "Ð°ÑİÑĤ": 6897,
      "Ġ×ª": 6898,
      "ĠLeg": 6899,
      "Ġrealize": 6900,
      "gn": 6901,
      "Ġpra": 6902,
      "ĠChinese": 6903,
      "Ġsorry": 6904,
      "ĠÐ¿Ð¾Ðº": 6905,
      "Ã©t": 6906,
      "ĠGeneral": 6907,
      "à¤ĸ": 6908,
      "Ġgear": 6909,
      "Ġimprovement": 6910,
      "ÑĢÐ°Ð·": 6911,
      "ander": 6912,
      "ĠDisc": 6913,
      "ĠMem": 6914,
      "ĠÐ³Ð»": 6915,
      "Ġ(\"": 6916,
      "Ġworkers": 6917,
      "space": 6918,
      "writ": 6919,
      "Ø£": 6920,
      "ĠPower": 6921,
      "ãģĵ": 6922,
      "kes": 6923,
      "ĠIndian": 6924,
      "ĠÅ¡": 6925,
      "Ġpreserv": 6926,
      "ÐĿ": 6927,
      "Ġ2021": 6928,
      "Ġrapid": 6929,
      "Ġthemes": 6930,
      "à¹Ħ": 6931,
      "ificial": 6932,
      "Ġic": 6933,
      "Ġremind": 6934,
      "ĠÐĿÐ¾": 6935,
      "Ġbegins": 6936,
      "77": 6937,
      "ÈĽ": 6938,
      "war": 6939,
      "Ġmetric": 6940,
      "Ġsexual": 6941,
      "Ġseconds": 6942,
      "ls": 6943,
      "unn": 6944,
      "nÃŃ": 6945,
      "Ġkin": 6946,
      "Ġelimin": 6947,
      "ika": 6948,
      "Ġclosely": 6949,
      "inf": 6950,
      "ĠvÃł": 6951,
      "Ġexplained": 6952,
      "ĠÚ©Ø±": 6953,
      "Ġstreet": 6954,
      "ĠNovember": 6955,
      "Ð³ÑĢ": 6956,
      "Ġinequ": 6957,
      "Ġclub": 6958,
      "Ġindustries": 6959,
      "Ġdiam": 6960,
      "Ġsuspect": 6961,
      "Ġinformed": 6962,
      "Ġfo": 6963,
      "Ġobst": 6964,
      "ante": 6965,
      "Ġengineering": 6966,
      "ĠÐ²Ð¸Ð´": 6967,
      "ups": 6968,
      "Ġplays": 6969,
      "geq": 6970,
      "Ġcommercial": 6971,
      "olving": 6972,
      "Ġplaced": 6973,
      "Ġdecl": 6974,
      "Ġpool": 6975,
      "Ġquad": 6976,
      "Ġgeometric": 6977,
      "Ġà´ħ": 6978,
      "Ġvegetables": 6979,
      "ns": 6980,
      "Ġbroken": 6981,
      "Ġexcited": 6982,
      "kin": 6983,
      "hy": 6984,
      "ĠBack": 6985,
      "Ġcollege": 6986,
      "onna": 6987,
      "Ġmort": 6988,
      "oken": 6989,
      "look": 6990,
      "ĠBefore": 6991,
      "Ġreports": 6992,
      "Ġdisci": 6993,
      "Ġuniversity": 6994,
      "Ġsudd": 6995,
      "Ġbrown": 6996,
      "ĠLo": 6997,
      "alls": 6998,
      "ĠAbout": 6999,
      "Ġinstructions": 7000,
      "uracy": 7001,
      "ĠAssoci": 7002,
      "ani": 7003,
      "Ġdaughter": 7004,
      "Ġshel": 7005,
      "ĠEast": 7006,
      "ĠWeb": 7007,
      "ĠMain": 7008,
      "Ġcancer": 7009,
      "Ġspeaker": 7010,
      "Ġapplying": 7011,
      "Ġexpansion": 7012,
      "ĠThrough": 7013,
      "ĠOld": 7014,
      "Ġreject": 7015,
      "raid": 7016,
      "ye": 7017,
      "Ġpepper": 7018,
      "500": 7019,
      "ĠâĢ¦": 7020,
      "ĠÃ®": 7021,
      "ĠLog": 7022,
      "Ġcombat": 7023,
      "Ġbelieved": 7024,
      "orter": 7025,
      "Ġuniform": 7026,
      "Ġfabric": 7027,
      "ÑĨÐ°": 7028,
      "Ð½Ð¾Ð²": 7029,
      "ĠÐ»Ð¸": 7030,
      "uro": 7031,
      "host": 7032,
      "31": 7033,
      "ÃŃt": 7034,
      "Ġconstra": 7035,
      "à¦ľ": 7036,
      "Ġmas": 7037,
      "ÐµÐºÑĤ": 7038,
      "Ġfailure": 7039,
      "Ġspiritual": 7040,
      "Ġregions": 7041,
      "ÐµÐ¼Ñĥ": 7042,
      "ĠMary": 7043,
      "ormal": 7044,
      "Ġcombined": 7045,
      "Ġsteel": 7046,
      "icial": 7047,
      "Ġanyway": 7048,
      "Ġclarity": 7049,
      "si": 7050,
      "Ġresource": 7051,
      "Ġtens": 7052,
      "Õ¡Õ´": 7053,
      "ĠÐ³ÑĢ": 7054,
      "Ġpackage": 7055,
      "Ġstatistical": 7056,
      "ĠÐ³Ð¾Ð²Ð¾ÑĢ": 7057,
      "ì§": 7058,
      "49": 7059,
      "Ġho": 7060,
      "Ġgi": 7061,
      "Ġpictures": 7062,
      "Ġguy": 7063,
      "Ġvisitors": 7064,
      "uke": 7065,
      "Ġevaluate": 7066,
      "Ã¤r": 7067,
      "Ġscal": 7068,
      "Ġlies": 7069,
      "Ġmeal": 7070,
      "Ġteacher": 7071,
      "Ġsz": 7072,
      "ĠHand": 7073,
      "Ġresponsibility": 7074,
      "Ġà¦Ĩ": 7075,
      "Ġregist": 7076,
      "ĠMac": 7077,
      "Ġprepare": 7078,
      "riage": 7079,
      "Ġradiation": 7080,
      "ÑģÑĤÐ²Ð°": 7081,
      "ÃŃa": 7082,
      "eren": 7083,
      "Ġdivis": 7084,
      "Ġrevised": 7085,
      "Ġassuming": 7086,
      "Ġletters": 7087,
      "ĠShow": 7088,
      "×Ļ×¨": 7089,
      "Ġsingular": 7090,
      "ĠOnly": 7091,
      "ĠÙħÛĮÚº": 7092,
      "Ġtwist": 7093,
      "à¯Ĩ": 7094,
      "Ġwatching": 7095,
      "Ġ$|": 7096,
      "Ġadventure": 7097,
      "Ġdied": 7098,
      "Ġmoments": 7099,
      "ĠDoes": 7100,
      "Ðł": 7101,
      "ÓĻ": 7102,
      "Ġaccessible": 7103,
      "ION": 7104,
      "Ġobserved": 7105,
      "Ġdiagram": 7106,
      "semb": 7107,
      "Ġroute": 7108,
      "ometimes": 7109,
      "Ġcourses": 7110,
      "Ġwheel": 7111,
      "Ġsubtle": 7112,
      "Ġaccepted": 7113,
      "iforn": 7114,
      "à¸²à¸£": 7115,
      "Ġdescribes": 7116,
      "edu": 7117,
      "hesis": 7118,
      "Ġacceleration": 7119,
      "Ġiron": 7120,
      "Ġconve": 7121,
      "ĠJer": 7122,
      "Ġdepartment": 7123,
      "dfrac": 7124,
      "Ġreb": 7125,
      "ressed": 7126,
      "exp": 7127,
      "Ġforced": 7128,
      "ĠIns": 7129,
      "Ġestimate": 7130,
      "Ġtut": 7131,
      "Ġapplies": 7132,
      "UT": 7133,
      "ĠExpl": 7134,
      "Ġloyal": 7135,
      "Ġappearance": 7136,
      "ĠLink": 7137,
      "Ġ×¨": 7138,
      "Ġcloud": 7139,
      "ĠFre": 7140,
      "Ġrub": 7141,
      "ifts": 7142,
      "Ġà´®": 7143,
      "circ": 7144,
      "Ġreserv": 7145,
      "Ġ$[": 7146,
      "Ġimproving": 7147,
      "Ġinnovation": 7148,
      "ĠcÃ³": 7149,
      "ÑĢÐ°Ð²": 7150,
      "Ġirre": 7151,
      "size": 7152,
      "Ġblow": 7153,
      "Ġmassive": 7154,
      "Ġoverw": 7155,
      "Ġcamera": 7156,
      "Ġpronoun": 7157,
      "ĠPrice": 7158,
      "Ġdance": 7159,
      "åľ": 7160,
      "ĠAPI": 7161,
      "}_{": 7162,
      "Ġkh": 7163,
      "ÏģÎ¿": 7164,
      "Ġovercome": 7165,
      "Ġexcess": 7166,
      "cules": 7167,
      "Ġregardless": 7168,
      "ĠJava": 7169,
      "Ġdram": 7170,
      "eles": 7171,
      "ĠInformation": 7172,
      "Ġaccident": 7173,
      "Ġorganic": 7174,
      "×ļ": 7175,
      "Ġban": 7176,
      "ald": 7177,
      "Ġconscious": 7178,
      "Ġprinciples": 7179,
      "Ġreached": 7180,
      "Ġentertain": 7181,
      "Ġacknow": 7182,
      "ĠSimilarly": 7183,
      "making": 7184,
      "Ġlived": 7185,
      "Ġruns": 7186,
      "à¦Ĺ": 7187,
      "Ġroutine": 7188,
      "Ġinstrument": 7189,
      "×ķ×ł": 7190,
      "Ġsurrounding": 7191,
      "Ġclause": 7192,
      "Ġinstant": 7193,
      "Ġtheore": 7194,
      "Ġneither": 7195,
      "Ġlisted": 7196,
      "Ġlights": 7197,
      "Ġmoon": 7198,
      "PC": 7199,
      "Ġpresented": 7200,
      "onent": 7201,
      "overn": 7202,
      "Ġregularly": 7203,
      "ĠDecember": 7204,
      ")/": 7205,
      "Ġevolution": 7206,
      "Ġabsolutely": 7207,
      "Ġforeign": 7208,
      "ÑĢÐµÐ´": 7209,
      "asts": 7210,
      "ĠArch": 7211,
      "Ġsurf": 7212,
      "Ġtypical": 7213,
      "related": 7214,
      "Ġvectors": 7215,
      "ĠExper": 7216,
      "ĠFrance": 7217,
      "Ġsatisfaction": 7218,
      "mega": 7219,
      "berg": 7220,
      "Ġchurch": 7221,
      "Ġmale": 7222,
      "ĠÑĸ": 7223,
      "Ġ]": 7224,
      "Ġfer": 7225,
      "akers": 7226,
      "Ġsympt": 7227,
      "á»§": 7228,
      "Ġscenario": 7229,
      "dis": 7230,
      "ĠÐĴÑĭ": 7231,
      "Ġvoltage": 7232,
      "ÈĻ": 7233,
      "itle": 7234,
      "ÑĥÐ²": 7235,
      "áĥľ": 7236,
      "ĠAp": 7237,
      "abel": 7238,
      "ĠHarry": 7239,
      "ĠStand": 7240,
      "ĠExample": 7241,
      "ĠJapanese": 7242,
      "idad": 7243,
      "Ġfasc": 7244,
      "ruary": 7245,
      "Ġdelivery": 7246,
      "Ġcart": 7247,
      "Ġtheme": 7248,
      "Ġcapture": 7249,
      "pet": 7250,
      "ĠPo": 7251,
      "Ġcorrelation": 7252,
      "Ġreligious": 7253,
      "Ġpapers": 7254,
      "Ġflav": 7255,
      "Ġcars": 7256,
      "Ġ×ĵ": 7257,
      "Ġmaintaining": 7258,
      "Ġowner": 7259,
      "Ġafraid": 7260,
      "Ġrecognize": 7261,
      "ĠStreet": 7262,
      "ë¡ľ": 7263,
      "Ġchord": 7264,
      "Øº": 7265,
      "ĠTem": 7266,
      "Ġoch": 7267,
      "Ö¶": 7268,
      "Ġchapter": 7269,
      "rooms": 7270,
      "ĠÃŃ": 7271,
      "EM": 7272,
      "Ġmeditation": 7273,
      "Ġgravitational": 7274,
      "ĠSil": 7275,
      "What": 7276,
      "ĠØ¨Ø±": 7277,
      "Ġharder": 7278,
      "Ġexplicitly": 7279,
      "herent": 7280,
      "ĠThose": 7281,
      "Ġserved": 7282,
      "Ġsports": 7283,
      "ĠØ§Ø³Øª": 7284,
      "Ġhero": 7285,
      "Ġride": 7286,
      "à¹ĥ": 7287,
      "Ġappreciate": 7288,
      "hab": 7289,
      "Ġstream": 7290,
      "words": 7291,
      "ĠDire": 7292,
      "ĠEduc": 7293,
      "Ġprioritize": 7294,
      "Ġbeat": 7295,
      "ĠSatur": 7296,
      "nÃ©": 7297,
      "Õ¸ÖĤÕ¶": 7298,
      "ĠÑģÐºÐ°Ð·": 7299,
      "ĠGold": 7300,
      "Ġpositions": 7301,
      "oub": 7302,
      "Ġli": 7303,
      "Ġstone": 7304,
      "Ġunknown": 7305,
      "ĠMichael": 7306,
      "Ġvent": 7307,
      "Ġexpressed": 7308,
      "Ġtwice": 7309,
      "Ġnoise": 7310,
      "As": 7311,
      "ÑĨÐ¸Ð¸": 7312,
      "mic": 7313,
      "0000": 7314,
      "ĠÑģÑĥ": 7315,
      "Ð¾ÑģÑĤÐ¾": 7316,
      "ÑĮÑİ": 7317,
      "Ġmodule": 7318,
      "Ġsacr": 7319,
      "ushed": 7320,
      "ilib": 7321,
      "Ġsale": 7322,
      "Ġrecommended": 7323,
      "Ġframework": 7324,
      "ĠÕ¸": 7325,
      "Ġassumption": 7326,
      "Ġagreement": 7327,
      "ë¥": 7328,
      "iva": 7329,
      "ĠAma": 7330,
      "ÐµÐ½Ð°": 7331,
      "Ùĳ": 7332,
      "Ġinteractive": 7333,
      "anda": 7334,
      "Ġarticles": 7335,
      "liers": 7336,
      "Ġprofessionals": 7337,
      "Ġcab": 7338,
      "roid": 7339,
      "ami": 7340,
      "ĠÐ±Ð¾Ð»": 7341,
      "Ġhappening": 7342,
      "Ò¯": 7343,
      "rium": 7344,
      "Ġtele": 7345,
      "Ġacts": 7346,
      "Ġmouth": 7347,
      "ĠBer": 7348,
      "Ġcomplicated": 7349,
      "ĠÐ¿Ð°ÑĢ": 7350,
      "Ġraised": 7351,
      "iler": 7352,
      "Ġcompleted": 7353,
      "ifornia": 7354,
      "sem": 7355,
      "Ġpersonality": 7356,
      "Ġoverwhel": 7357,
      "Ġwitness": 7358,
      "Ġcrack": 7359,
      "icht": 7360,
      "ÐºÐ¾Ð²": 7361,
      "Ġkm": 7362,
      "Ġmajority": 7363,
      "osit": 7364,
      "Ġincorrect": 7365,
      "ĠHope": 7366,
      "len": 7367,
      "Ð¸ÑĢÐ¾Ð²": 7368,
      "ĠÎºÎ±Î¹": 7369,
      "Ġsigns": 7370,
      "Ġpayment": 7371,
      "isation": 7372,
      "ĠST": 7373,
      "Ġsnow": 7374,
      "cia": 7375,
      "ÑĸÐ»": 7376,
      "47": 7377,
      "\\}$": 7378,
      "cons": 7379,
      "ĠFam": 7380,
      "Ġpossibilities": 7381,
      "ĠRoman": 7382,
      "à¦·": 7383,
      "Ġsymmetry": 7384,
      "kan": 7385,
      "Ġextension": 7386,
      "Ġauthors": 7387,
      "Ð°Ñĩ": 7388,
      "ĠMonday": 7389,
      "Ġalgorithms": 7390,
      "ÙĴ": 7391,
      "ĠMer": 7392,
      "ogy": 7393,
      "ãģ¾ãģĻ": 7394,
      "Ġnearby": 7395,
      "this": 7396,
      "Ġmotor": 7397,
      "Ġliterature": 7398,
      "ĠEr": 7399,
      "hem": 7400,
      "Ġwhom": 7401,
      "Ġcrow": 7402,
      "Ġà¦¹": 7403,
      "Ġreduction": 7404,
      "ĠRef": 7405,
      "Ġpairs": 7406,
      "IV": 7407,
      "Ġarc": 7408,
      "Ġquiet": 7409,
      "ĠChapter": 7410,
      "×ķ×ĵ": 7411,
      "88": 7412,
      "anges": 7413,
      "Ġfinished": 7414,
      "Ġformed": 7415,
      "ĠÐ½Ð°Ñģ": 7416,
      "Ġpassing": 7417,
      "ĠExp": 7418,
      "Ġlocations": 7419,
      "Ġposts": 7420,
      "Ġtaught": 7421,
      "ici": 7422,
      "à¸¸": 7423,
      "Ġconfident": 7424,
      "ÐºÑĤ": 7425,
      "coh": 7426,
      "Õ¡Õ¯Õ¡Õ¶": 7427,
      "ether": 7428,
      "Ġproceed": 7429,
      "Ġstatic": 7430,
      "*}": 7431,
      "Ġà¥": 7432,
      "Ġrid": 7433,
      "Ø§Ùĩ": 7434,
      "Ġunlikely": 7435,
      "top": 7436,
      "ĠCong": 7437,
      "Ġspr": 7438,
      "ÑıÑĤÑĮ": 7439,
      "ĠPot": 7440,
      "Ġmoral": 7441,
      "Ġpersonalized": 7442,
      "Ġcategories": 7443,
      "Ġocean": 7444,
      "Ġhyper": 7445,
      "ĠÐ¿Ð¾Ð²": 7446,
      "Ġawareness": 7447,
      "ims": 7448,
      "Ġ500": 7449,
      "Ġcharacteristics": 7450,
      "Ġconvert": 7451,
      "ĠMil": 7452,
      "Ġlinks": 7453,
      "ÑģÑĤÐ°Ð½": 7454,
      "Ġaccuracy": 7455,
      "Ġcrime": 7456,
      "Ġsomewhere": 7457,
      "Ġdepart": 7458,
      "Ġdut": 7459,
      "equation": 7460,
      "Ġcrew": 7461,
      "ĠÐºÐ¾ÑĢ": 7462,
      "Ġencounter": 7463,
      "mo": 7464,
      "ÉĻn": 7465,
      "Ġmu": 7466,
      "á»ģ": 7467,
      "Ġmic": 7468,
      "Ġobviously": 7469,
      "Ġhandling": 7470,
      "Ġwinter": 7471,
      "Ġcogn": 7472,
      "Ġfinds": 7473,
      "Ġsustainability": 7474,
      "Ġshoot": 7475,
      "Ġcharges": 7476,
      "Ð°ÑĤÑĮÑģÑı": 7477,
      "áĥĲáĥĵ": 7478,
      "Ġcorner": 7479,
      "Ã«r": 7480,
      "Ġcoordinates": 7481,
      "íķľ": 7482,
      "ĠÐ´Ð¾Ð»Ð¶": 7483,
      "ĠDist": 7484,
      "Ġfle": 7485,
      "Ġsession": 7486,
      "ĠSing": 7487,
      "ĠÐ±Ð¾Ð»ÑĮ": 7488,
      "ĠÕ¯": 7489,
      "Ġsitting": 7490,
      "iences": 7491,
      "Ġcompetition": 7492,
      "Ġsignificance": 7493,
      "ĠÃ¶": 7494,
      "Ġcleaning": 7495,
      "ĠÑĤÐµÐ±Ñı": 7496,
      "Ġpump": 7497,
      "Ġà¤ķà¤°": 7498,
      "varphi": 7499,
      "xygen": 7500,
      "ĠOP": 7501,
      "ĠLife": 7502,
      "à¸Ľ": 7503,
      "Ġunex": 7504,
      "ĠLove": 7505,
      "fast": 7506,
      "Ġjoint": 7507,
      "map": 7508,
      "ĠSy": 7509,
      "Ġâī": 7510,
      "Ġanalyt": 7511,
      "ĠScience": 7512,
      "Ã¬": 7513,
      "Ġminute": 7514,
      "Ġdesigns": 7515,
      "ĠLight": 7516,
      "Ġà´¨": 7517,
      "Ġrotation": 7518,
      "Ġsuppose": 7519,
      "ĠThink": 7520,
      "ĠAgain": 7521,
      "icy": 7522,
      "from": 7523,
      "ĠFather": 7524,
      "uv": 7525,
      "Ġjoy": 7526,
      "lege": 7527,
      "Ġorb": 7528,
      "Ġlatter": 7529,
      "Ġtriangle": 7530,
      "Ġhat": 7531,
      "omorphism": 7532,
      "Ġstruggle": 7533,
      "})$": 7534,
      "Ġparties": 7535,
      "Ġrh": 7536,
      "Õ¶Õ¥ÖĢ": 7537,
      "ÛĮÚº": 7538,
      "Ġinterv": 7539,
      "stein": 7540,
      "Ġplug": 7541,
      "estic": 7542,
      "agram": 7543,
      "Ġabstract": 7544,
      "ÏģÎ±": 7545,
      "stream": 7546,
      "ĠBig": 7547,
      "Ġton": 7548,
      "ota": 7549,
      "ĠWed": 7550,
      "++": 7551,
      "ocket": 7552,
      "áĥ¢": 7553,
      "agine": 7554,
      "Ġà¤ļ": 7555,
      "Ġinterface": 7556,
      "Ġsphere": 7557,
      "ĠReal": 7558,
      "night": 7559,
      "ĠSa": 7560,
      "Ġ32": 7561,
      "ĠTwitter": 7562,
      "icians": 7563,
      "Ġsched": 7564,
      ")=\\": 7565,
      "roduct": 7566,
      "erver": 7567,
      "Ġnation": 7568,
      "ĠPeter": 7569,
      "ãĤĤ": 7570,
      "Ġcollaboration": 7571,
      "Ġlift": 7572,
      "Ġrely": 7573,
      "oga": 7574,
      "Ġboundaries": 7575,
      "ÐµÑĨ": 7576,
      "ÑĢÐ¾Ñģ": 7577,
      "Ġtrouble": 7578,
      "Ph": 7579,
      "ĠWhether": 7580,
      "ĠServices": 7581,
      "hus": 7582,
      "Ġboost": 7583,
      "ĠFebruary": 7584,
      "ĠSon": 7585,
      "Ġsan": 7586,
      "Ġspark": 7587,
      "Ġintegration": 7588,
      "Ġradio": 7589,
      "Ġmyster": 7590,
      "Ġbrings": 7591,
      "Ð¸Ð»ÑĮ": 7592,
      "ĠCr": 7593,
      "Ġbigger": 7594,
      "ĠÃ©s": 7595,
      "ourage": 7596,
      "ĠÑįÑĤÐ¾Ð¼": 7597,
      "Ġsight": 7598,
      "xi": 7599,
      "En": 7600,
      "oding": 7601,
      "Ġera": 7602,
      "ĠWindows": 7603,
      "Ġchecks": 7604,
      "ĠÑĢÐ°Ð±Ð¾ÑĤ": 7605,
      "Ġhusband": 7606,
      "ĠÐµÑģÐ»Ð¸": 7607,
      "AB": 7608,
      "brew": 7609,
      "Ġcheap": 7610,
      "Ġà®¨": 7611,
      "Ġtelling": 7612,
      "ĠMoreover": 7613,
      "ĠCalifornia": 7614,
      "ĠType": 7615,
      "iche": 7616,
      "ĠÐ¸ÑģÐ¿": 7617,
      "ĠÃ¨": 7618,
      "Ġrecommendations": 7619,
      "à¤Ī": 7620,
      "Ġmolec": 7621,
      "ãģ£": 7622,
      "Ġconcerned": 7623,
      "ĠBased": 7624,
      "Ð¸ÑĤÑģÑı": 7625,
      "Ġholes": 7626,
      "OL": 7627,
      "Ġcomplement": 7628,
      "Ġà¦¨": 7629,
      "Ġfemale": 7630,
      "Con": 7631,
      "wa": 7632,
      "arsh": 7633,
      "Ġfoundation": 7634,
      "ocolate": 7635,
      "Ġdiscount": 7636,
      "bf": 7637,
      "Ġbinary": 7638,
      "DF": 7639,
      "ĠÄį": 7640,
      "Ġgoods": 7641,
      "ÑģÐºÐ¸": 7642,
      "68": 7643,
      "CH": 7644,
      "uts": 7645,
      "ĠBob": 7646,
      "agger": 7647,
      "ML": 7648,
      "Ġjudge": 7649,
      "Ġarchitecture": 7650,
      "Ġreplaced": 7651,
      "Ã¼n": 7652,
      "ĠDepartment": 7653,
      "])": 7654,
      "Ġspac": 7655,
      "á»ĥ": 7656,
      "Ġreasoning": 7657,
      "Ġcryst": 7658,
      "ĠProject": 7659,
      "ldots": 7660,
      "ĠMal": 7661,
      "Ġspending": 7662,
      "vin": 7663,
      "zi": 7664,
      "Ġpromoting": 7665,
      "ket": 7666,
      "ĠBible": 7667,
      "ĠCompany": 7668,
      "ading": 7669,
      "urban": 7670,
      "ÑĢÐ¾": 7671,
      "Ġpreviously": 7672,
      "Ġcontem": 7673,
      "ãĤī": 7674,
      "Ġassistance": 7675,
      "Ġdealing": 7676,
      "ago": 7677,
      "ĠÐ½Ð°Ð´": 7678,
      "Ġartist": 7679,
      "ĠSunday": 7680,
      "ĠGermany": 7681,
      "ĠÐ¼Ð¾Ð¶ÐµÑĤ": 7682,
      "Ġscores": 7683,
      "Ġserving": 7684,
      "asi": 7685,
      "ãĥ«": 7686,
      "Ġagg": 7687,
      "Ġmolecules": 7688,
      "Ġalive": 7689,
      "ĠNone": 7690,
      "Ġbowl": 7691,
      "Ġsmell": 7692,
      "ĠEp": 7693,
      "Ðļ": 7694,
      "orough": 7695,
      "Sh": 7696,
      "Ġprincip": 7697,
      "Ġpassage": 7698,
      "Ġfro": 7699,
      "Ġsubs": 7700,
      "Ġintroduce": 7701,
      "Ġexercises": 7702,
      "lean": 7703,
      "Ð¾Ð»ÑĮÐ·": 7704,
      "ĠRob": 7705,
      "Ġfunctional": 7706,
      "Ġmal": 7707,
      "ĠExt": 7708,
      "Ġ),": 7709,
      "Ġchemicals": 7710,
      "à¯ĭ": 7711,
      "vol": 7712,
      "ĠSaturday": 7713,
      "ila": 7714,
      "Ġoccup": 7715,
      "Ġaxis": 7716,
      "FC": 7717,
      "ĠEgy": 7718,
      "ĠÐŀÐ½": 7719,
      "Ġbillion": 7720,
      "quest": 7721,
      "Ġvolunte": 7722,
      "Omega": 7723,
      "Ġmaps": 7724,
      "ĠJour": 7725,
      "ĠUSA": 7726,
      "ĠDescription": 7727,
      "Ġadj": 7728,
      "Ġvehicles": 7729,
      "ĠThom": 7730,
      "Ġfort": 7731,
      "ĠÐ´Ð²": 7732,
      "Ġwriter": 7733,
      "Ġdishes": 7734,
      "Ġtoward": 7735,
      "Ġexception": 7736,
      "max": 7737,
      "uses": 7738,
      "à¸·": 7739,
      "ãĥĥ": 7740,
      "Ġà¥¤": 7741,
      "Ġstrings": 7742,
      "aren": 7743,
      "Ġstorm": 7744,
      "Ġfunding": 7745,
      "Ġtherapy": 7746,
      "Ġfurn": 7747,
      "aka": 7748,
      "Ġpued": 7749,
      "ÏĦÎ·": 7750,
      "Ġplate": 7751,
      "Ġmatters": 7752,
      "ÑĸÐ´": 7753,
      "elle": 7754,
      "à¹Į": 7755,
      "ĠÐ·Ð´": 7756,
      "Ġcorpor": 7757,
      "Ġcaught": 7758,
      "ÑĥÐ½": 7759,
      "ĠChoose": 7760,
      "Ġenemy": 7761,
      "Ġflexible": 7762,
      "Ġmeaningful": 7763,
      "Īëĭ¤": 7764,
      "Ġsubt": 7765,
      "Ġsecrets": 7766,
      "Ġdependent": 7767,
      "à¸Ī": 7768,
      "ĠJud": 7769,
      "à¥ĭà¤Ĥ": 7770,
      "rox": 7771,
      "PA": 7772,
      ")-": 7773,
      "Ġdan": 7774,
      "Ġnarrow": 7775,
      "Ġupdates": 7776,
      "Ġintroduced": 7777,
      "Ġfluid": 7778,
      "ĠWord": 7779,
      "Ġìł": 7780,
      "ferent": 7781,
      "Ġvisible": 7782,
      "ĠIT": 7783,
      "ĠMicro": 7784,
      "otimes": 7785,
      "ĠFound": 7786,
      "ĠToday": 7787,
      "Ġargue": 7788,
      "ĠBet": 7789,
      "Ġoven": 7790,
      "roduction": 7791,
      "ÐŁ": 7792,
      "67": 7793,
      "å¹": 7794,
      "ĠPublic": 7795,
      "ĠØ§ÙĪØ±": 7796,
      "ĠEnter": 7797,
      "Ġdocuments": 7798,
      "Ġschol": 7799,
      "IM": 7800,
      "à´¦": 7801,
      "ĠTheorem": 7802,
      "Ġtill": 7803,
      "Ġboundary": 7804,
      "ĠFollow": 7805,
      "Ġconcrete": 7806,
      "py": 7807,
      "Ġoperating": 7808,
      "ÙĬØ±": 7809,
      "Ġfacilities": 7810,
      "Ġdelicious": 7811,
      "ĠTur": 7812,
      "Ġki": 7813,
      "Ġresidents": 7814,
      "test": 7815,
      "Ðķ": 7816,
      "Ġfost": 7817,
      "ĠFire": 7818,
      "Ġsettings": 7819,
      "Ġsuppl": 7820,
      "Ġbuildings": 7821,
      "Ġthank": 7822,
      "ĠAdv": 7823,
      "Ġairport": 7824,
      "Ġ(\\": 7825,
      "ĠÃº": 7826,
      "¸°": 7827,
      "Ġconstantly": 7828,
      "Ġabsorb": 7829,
      "Ġvoid": 7830,
      "Ġcable": 7831,
      "essions": 7832,
      "Ġ×¤": 7833,
      "Ġalle": 7834,
      "Ġ->": 7835,
      "Ġperman": 7836,
      "ĠOnline": 7837,
      "ained": 7838,
      "ÑİÑĤ": 7839,
      "Ġassumptions": 7840,
      "ãģĹãģ¦": 7841,
      "Ġlandscape": 7842,
      "ĠÛģÛĴ": 7843,
      "Ġimplemented": 7844,
      "ĠÑģÐ»Ð¾Ð²": 7845,
      "cher": 7846,
      "ĠProb": 7847,
      "ycle": 7848,
      "jet": 7849,
      "ima": 7850,
      "ĠCoun": 7851,
      "Ð¸Ð½Ð¸": 7852,
      "Ġwhereas": 7853,
      "Ġcalculated": 7854,
      "Ġachieved": 7855,
      "QL": 7856,
      "Ġseven": 7857,
      "Ġarms": 7858,
      "ĠÐ½Ð°Ð·": 7859,
      "Ġworse": 7860,
      "Ġadm": 7861,
      "arn": 7862,
      "UR": 7863,
      "Ġguests": 7864,
      "uls": 7865,
      "ĠNOT": 7866,
      "Ġunable": 7867,
      "Ġacting": 7868,
      "Ġresolution": 7869,
      "Ġneighborhood": 7870,
      "van": 7871,
      "áĥĲáĥłáĥ": 7872,
      "Ġfav": 7873,
      "Ġdataset": 7874,
      "string": 7875,
      "ĠEs": 7876,
      "iah": 7877,
      "áĥĲáĥķ": 7878,
      "aws": 7879,
      "Ġresearchers": 7880,
      "alian": 7881,
      "Ġpleasure": 7882,
      "ifier": 7883,
      "osh": 7884,
      "Ġfrequently": 7885,
      "à¦ĩ": 7886,
      "ĠÐµÑģÑĤÑĮ": 7887,
      "ÑļÐµ": 7888,
      "Ġpowder": 7889,
      "Ġguard": 7890,
      "class": 7891,
      "Ġstores": 7892,
      "ĠØ§ÙĦØ£": 7893,
      "Ġalgebraic": 7894,
      "Ġnoted": 7895,
      "oj": 7896,
      "aturally": 7897,
      "Öī": 7898,
      "lesh": 7899,
      "Ġcoefficient": 7900,
      "Ġexperts": 7901,
      "person": 7902,
      "Ġfriendly": 7903,
      "Ð°ÐµÑĤÑģÑı": 7904,
      "uum": 7905,
      "ÑĢÐ°ÑĤ": 7906,
      "Ġoxygen": 7907,
      "ĠSometimes": 7908,
      "Ġworksh": 7909,
      "Ġapproxim": 7910,
      "Ġtomat": 7911,
      "ÏĦÎµ": 7912,
      "vas": 7913,
      "ĠHall": 7914,
      "Î²": 7915,
      "rian": 7916,
      "à¸Ńà¸ĩ": 7917,
      "LE": 7918,
      "ÑĽ": 7919,
      "Ġlib": 7920,
      "Ġbill": 7921,
      "Ġdifferential": 7922,
      "Ġmessages": 7923,
      "Ġsymptoms": 7924,
      "ĠAbs": 7925,
      "Ġtemperatures": 7926,
      "Ġexciting": 7927,
      "Ġmixed": 7928,
      "69": 7929,
      "aÃ§Ã£o": 7930,
      "Ġdrug": 7931,
      "Ġstyles": 7932,
      "Ġdrawing": 7933,
      "Ġta": 7934,
      "Ġfitness": 7935,
      "Ġmonitor": 7936,
      "Ġinsert": 7937,
      "ĠParis": 7938,
      "ãģķ": 7939,
      "Ġpurs": 7940,
      "ĠIdent": 7941,
      "ĠSpirit": 7942,
      "soft": 7943,
      "oven": 7944,
      "lands": 7945,
      "Ġau": 7946,
      "Ġcreativity": 7947,
      "ĠQuest": 7948,
      "Ġamounts": 7949,
      "outs": 7950,
      "Ġparameters": 7951,
      "tee": 7952,
      "Ġwearing": 7953,
      "Ġfaced": 7954,
      "Ġsensitive": 7955,
      "Ġmoist": 7956,
      "ĠCanada": 7957,
      "ãĤ¯": 7958,
      "eries": 7959,
      "itz": 7960,
      "Ġseat": 7961,
      "CO": 7962,
      "Ġinterpre": 7963,
      "chi": 7964,
      "Ġprofit": 7965,
      "Ã¢n": 7966,
      "Ġbear": 7967,
      "ĠÑĤÐ¾Ð»ÑĮÐºÐ¾": 7968,
      "equiv": 7969,
      "Ġvisa": 7970,
      "Ġhypothesis": 7971,
      "Ġtea": 7972,
      "Ġcitizens": 7973,
      "pa": 7974,
      "ÑıÐ·": 7975,
      "rome": 7976,
      "áĥĶáĥľ": 7977,
      "Ġhal": 7978,
      "Ð°ÑĤÐµÐ»ÑĮ": 7979,
      "ĠOutput": 7980,
      "Ġdoctor": 7981,
      "Ġampl": 7982,
      "ĠCourt": 7983,
      "Ġspecified": 7984,
      "istem": 7985,
      "ilibrium": 7986,
      "Ġconfusion": 7987,
      "Ġreward": 7988,
      "Ð²ÐµÑĤ": 7989,
      "Ġ197": 7990,
      "ĠBank": 7991,
      "inst": 7992,
      "Ġtransp": 7993,
      "Ġæ": 7994,
      "Ġtip": 7995,
      "Î¯Î±": 7996,
      "sis": 7997,
      "she": 7998,
      "edge": 7999,
      "Ġng": 8000,
      "phone": 8001,
      "Ġrecords": 8002,
      "Ġminimal": 8003,
      "ĠÐłÐ¾ÑģÑģ": 8004,
      "ÑĢÐ¾Ð²": 8005,
      "oking": 8006,
      "ĠPhys": 8007,
      "Ġpoll": 8008,
      "ĠÐ±ÑĭÑĤÑĮ": 8009,
      "ĠðŁ": 8010,
      "Ġbare": 8011,
      "Ġgarlic": 8012,
      "Ġflour": 8013,
      "Ġfocusing": 8014,
      "Ġperce": 8015,
      "fficients": 8016,
      "nabla": 8017,
      "Ġhomes": 8018,
      "Ġenable": 8019,
      "yt": 8020,
      "ĠDen": 8021,
      "!)": 8022,
      "Ø¸": 8023,
      "andon": 8024,
      "Ġagricult": 8025,
      "Ġshut": 8026,
      "rition": 8027,
      "Ġsizes": 8028,
      "Ġstretch": 8029,
      "Ġfing": 8030,
      "ĠMount": 8031,
      "Ġrecurs": 8032,
      "Ġkid": 8033,
      "Ð½Ð°Ñĩ": 8034,
      "Ġlimitations": 8035,
      "ÏĢÎ¿": 8036,
      "Ġturning": 8037,
      "Ġincorporating": 8038,
      "Ġdiagn": 8039,
      "Ġza": 8040,
      "Ġinsight": 8041,
      "Ġbreaking": 8042,
      "bi": 8043,
      "ĠOrgan": 8044,
      "Ġnoticed": 8045,
      "Ġshopping": 8046,
      "Ġhet": 8047,
      "Ġappoint": 8048,
      "ĠÏĦÎ¿": 8049,
      "à¸µà¹Ī": 8050,
      "Ġconvenient": 8051,
      "Ġdictionary": 8052,
      "Ġmultip": 8053,
      "Ġinequality": 8054,
      "ptic": 8055,
      "pan": 8056,
      "sit": 8057,
      "ona": 8058,
      "Ð»Ð°Ð´": 8059,
      "ĠSpecial": 8060,
      "Ġincorporate": 8061,
      "ĠÐ²ÐµÑĢ": 8062,
      "yer": 8063,
      "Ġgro": 8064,
      "ĠPs": 8065,
      "ĠÐ±ÐµÐ·": 8066,
      "Ġshowed": 8067,
      "ĠEgypt": 8068,
      "×Ļ×ľ": 8069,
      "Ġcomparison": 8070,
      "Ġmes": 8071,
      "izard": 8072,
      "Ġshouldn": 8073,
      "Ġexplains": 8074,
      "Ġà¤ı": 8075,
      "Ġthanks": 8076,
      "Ġcutting": 8077,
      "á½": 8078,
      "Ġcontainer": 8079,
      "åĽ": 8080,
      "×ķ×ĳ": 8081,
      "ÑĸÐ²": 8082,
      "Ġdrawn": 8083,
      "har": 8084,
      "ĠPract": 8085,
      "ÏīÎ½": 8086,
      "Ġreferring": 8087,
      "Ð¢": 8088,
      "plete": 8089,
      "ĠÐ½Ð°ÑĪ": 8090,
      "And": 8091,
      "Ġtro": 8092,
      "Ð¸Ñĺ": 8093,
      "ĠPress": 8094,
      "Ġedges": 8095,
      "Ġ×§": 8096,
      "Õ¡Õ¿": 8097,
      "Ġnuclear": 8098,
      "eder": 8099,
      "ĠGovern": 8100,
      "Ġrice": 8101,
      "inding": 8102,
      "luding": 8103,
      "Ġcovers": 8104,
      "Ġokay": 8105,
      "agers": 8106,
      "Ġrepair": 8107,
      "Ġelectrical": 8108,
      "Ġreferred": 8109,
      "Ġoptimize": 8110,
      "Ġmountain": 8111,
      "Ġfell": 8112,
      "Ġnative": 8113,
      "ady": 8114,
      "Ġ×Ĳ×ª": 8115,
      "zt": 8116,
      "ĠTer": 8117,
      "ÙĪÙħ": 8118,
      "ĠØ²": 8119,
      "Ġfighting": 8120,
      "Ġepisode": 8121,
      "Õ½": 8122,
      "Ð¸Ð³": 8123,
      "Ġlaugh": 8124,
      "Ġlists": 8125,
      "Ġperformed": 8126,
      "Ġprofile": 8127,
      "ĠTrue": 8128,
      "ctu": 8129,
      "ĠÏĦÎ¿Ïħ": 8130,
      "Ġagent": 8131,
      "cup": 8132,
      "Ġreferences": 8133,
      "uing": 8134,
      "Ġdimensions": 8135,
      "Ġsurvive": 8136,
      "Ġnull": 8137,
      "ĠÐ¿Ð»": 8138,
      "iture": 8139,
      "ĠManagement": 8140,
      "Ġdrag": 8141,
      "Ġinstalled": 8142,
      "acter": 8143,
      "\\_": 8144,
      "Ð½Ñĥ": 8145,
      "Ġdivide": 8146,
      "AY": 8147,
      "zero": 8148,
      "Ġ2000": 8149,
      "Ġdivers": 8150,
      "ĠHim": 8151,
      "nec": 8152,
      "ĠTues": 8153,
      "ĠInternet": 8154,
      "Ġforever": 8155,
      "Ġaudio": 8156,
      "Ġcondu": 8157,
      "Ġdestination": 8158,
      "ĠFore": 8159,
      "ĠRich": 8160,
      "02": 8161,
      "ĠCollege": 8162,
      "ĠShare": 8163,
      "Ġobtained": 8164,
      "itoring": 8165,
      "Ø§Ø²": 8166,
      "Ġorient": 8167,
      "ĠLong": 8168,
      "ariant": 8169,
      "Ġevening": 8170,
      "Al": 8171,
      "Ġtall": 8172,
      "Ġextended": 8173,
      "ĠSource": 8174,
      "ĠRussian": 8175,
      "nic": 8176,
      "Ġwet": 8177,
      "Ġoutdoor": 8178,
      "ĠTO": 8179,
      "Ġconfirm": 8180,
      "04": 8181,
      "ĠAD": 8182,
      "Ġanywhere": 8183,
      "Ġmanufacturing": 8184,
      "Ġrepeated": 8185,
      "neg": 8186,
      "Ġsto": 8187,
      "Ã©m": 8188,
      "Ġcro": 8189,
      "Ġleadership": 8190,
      "Ġsharp": 8191,
      "âĢĿ.": 8192,
      "ĠChild": 8193,
      "while": 8194,
      "Ġresponses": 8195,
      "If": 8196,
      "ĠCap": 8197,
      "ĠnÃ«": 8198,
      "Ġmultiplic": 8199,
      "Ġwidth": 8200,
      "Ġatoms": 8201,
      "then": 8202,
      "Ġmuse": 8203,
      "Ġtriv": 8204,
      "Ġidentified": 8205,
      "Ġcoefficients": 8206,
      "bin": 8207,
      "Ø§Ø¹": 8208,
      "Ġserves": 8209,
      "ĠÐ±ÑĭÐ»": 8210,
      "Ġautomatically": 8211,
      "Ġsuc": 8212,
      "Ġtrial": 8213,
      "Ġmistake": 8214,
      "è¡": 8215,
      "Ġchecking": 8216,
      "áĥĲáĥ¡": 8217,
      "Öµ": 8218,
      "pres": 8219,
      "ĠCode": 8220,
      "Ġva": 8221,
      "Ġadopt": 8222,
      "Ġdemonstrate": 8223,
      "tw": 8224,
      "xic": 8225,
      "Ġretail": 8226,
      "Ġmenu": 8227,
      "ĠImagine": 8228,
      "dx": 8229,
      "fe": 8230,
      "cohol": 8231,
      "Ġsod": 8232,
      "IG": 8233,
      "ĠÑģÐ¾Ð±": 8234,
      "ĠAnn": 8235,
      "Ġadvis": 8236,
      "Ġlighting": 8237,
      "Ġmeasured": 8238,
      "Ġneck": 8239,
      "×ĳ×¨": 8240,
      "Ġunus": 8241,
      "osis": 8242,
      "Ġinvent": 8243,
      "ĠØ§ÙĦØª": 8244,
      "Ġbeach": 8245,
      "Ġvote": 8246,
      "Ġconsumption": 8247,
      "PT": 8248,
      "Ġreputation": 8249,
      "style": 8250,
      "áĥĲáĥļ": 8251,
      "Ġtreated": 8252,
      "ÐµÑĤÑĮ": 8253,
      "Ġminimize": 8254,
      "ĠDate": 8255,
      "Ġinstit": 8256,
      "Ġelev": 8257,
      "Å¯": 8258,
      "ĠHi": 8259,
      "ĠÐ¾Ð½Ð¸": 8260,
      "Ġcontaining": 8261,
      "Ġgrammar": 8262,
      "dri": 8263,
      "Ġinfluenced": 8264,
      "Ġconservation": 8265,
      "ĠlÃł": 8266,
      "isa": 8267,
      "Ġalb": 8268,
      "ĠChristmas": 8269,
      "Ġstatistics": 8270,
      "Ġartificial": 8271,
      "ĠWithout": 8272,
      "Ã§Ãµes": 8273,
      "istant": 8274,
      "ĠDiv": 8275,
      "Ġeducational": 8276,
      "Ġparameter": 8277,
      "ĠNon": 8278,
      "ĠØµ": 8279,
      "ĠÐ½Ð¾Ð²": 8280,
      "Ġãĥ": 8281,
      "Ġfacts": 8282,
      "Ġfacilit": 8283,
      "MS": 8284,
      "Ġclothing": 8285,
      "×ķ×Ł": 8286,
      "Ġreactions": 8287,
      "éĢ": 8288,
      "Ġdriver": 8289,
      "Ġstability": 8290,
      "isdom": 8291,
      "ĠFood": 8292,
      "Ġleaders": 8293,
      "Î¼Î±": 8294,
      "uster": 8295,
      "Ġproductivity": 8296,
      "Ġrepresented": 8297,
      "ĠHT": 8298,
      "asting": 8299,
      "å¤§": 8300,
      "42": 8301,
      "Ġ1000": 8302,
      "ĠCare": 8303,
      "ĠÐ¿Ð¾ÑĢ": 8304,
      "Ġpi": 8305,
      "Ġfans": 8306,
      "Ġdistingu": 8307,
      "ĠAustralia": 8308,
      "Ġthorough": 8309,
      "Ġguys": 8310,
      "ê³ł": 8311,
      "Ġrespectively": 8312,
      "ĠPosted": 8313,
      "Ġsupporting": 8314,
      "ĠSuppose": 8315,
      "Ġroles": 8316,
      "ĠÐ·Ð°Ðº": 8317,
      "Ġmodify": 8318,
      "Ġbreaks": 8319,
      "ĠMult": 8320,
      "Ġtexture": 8321,
      "áºŃ": 8322,
      "Ġquantity": 8323,
      "mid": 8324,
      "ìĭ": 8325,
      "Ġtrained": 8326,
      "enger": 8327,
      "Ġmyth": 8328,
      "Ġpainting": 8329,
      "ĠApple": 8330,
      "Ġkinds": 8331,
      "Æ¡": 8332,
      "àµĢ": 8333,
      "Ġtrib": 8334,
      "Ġ2007": 8335,
      "ĠRepublic": 8336,
      "pow": 8337,
      "Ġremark": 8338,
      "ĠEngland": 8339,
      "ito": 8340,
      "Ġhurt": 8341,
      "ĠTim": 8342,
      "ÐµÐ½Ð¸Ð¸": 8343,
      "ĠSmith": 8344,
      "Ø§Ùģ": 8345,
      "haust": 8346,
      "Ã´ng": 8347,
      "Pro": 8348,
      "Ġcritic": 8349,
      "Ġiz": 8350,
      "ÛĮØ¯": 8351,
      "Ġverse": 8352,
      "Ġlegs": 8353,
      "Ġorders": 8354,
      "ester": 8355,
      "Ġdos": 8356,
      "Ġtank": 8357,
      "Ġslic": 8358,
      "ìľ": 8359,
      "ĠaÃ°": 8360,
      "ĠMen": 8361,
      "Ġfascin": 8362,
      "Ġyang": 8363,
      "ĠGM": 8364,
      "Ġmig": 8365,
      "Ġconference": 8366,
      "ĠCall": 8367,
      "Ġeen": 8368,
      "à¦¹": 8369,
      "ÐµÑĢÐ¶": 8370,
      "Ġcharged": 8371,
      "à¯Ĭ": 8372,
      "Ġobserve": 8373,
      "Ġintroduction": 8374,
      "bel": 8375,
      "ikes": 8376,
      "ĠKey": 8377,
      "ĠáĥĵáĥĲ": 8378,
      "Ġcash": 8379,
      "ulating": 8380,
      "Ġà¦ķà¦°": 8381,
      "Ġsheet": 8382,
      "ĠdÃ©": 8383,
      "Ġgall": 8384,
      "Ġber": 8385,
      "Ġintric": 8386,
      "ìļ": 8387,
      "long": 8388,
      "active": 8389,
      "Ġconfir": 8390,
      "ĠÐ¿Ð¾Ð·": 8391,
      "Ġtheories": 8392,
      "ingly": 8393,
      "'$": 8394,
      "à¦Ľ": 8395,
      "ĠDid": 8396,
      "Ġenab": 8397,
      "ĠÑħÐ¾ÑĤ": 8398,
      "ĠAmazon": 8399,
      "orders": 8400,
      "Ð°Ð½Ð´": 8401,
      "Ġattached": 8402,
      "ĠØ§ÙĦØ¹": 8403,
      "Ġeight": 8404,
      "Õ´": 8405,
      "eat": 8406,
      "Ġpit": 8407,
      "ĠQue": 8408,
      "Ġselected": 8409,
      "}}{": 8410,
      "han": 8411,
      "Ġflying": 8412,
      "Ġtermin": 8413,
      "Re": 8414,
      "}.": 8415,
      "Ġongoing": 8416,
      "Ġadvertising": 8417,
      "ĠZe": 8418,
      "Ġ:)": 8419,
      "ĠWould": 8420,
      "Ġtiny": 8421,
      "Äĩ": 8422,
      "Ġderived": 8423,
      "Ġstake": 8424,
      "amm": 8425,
      "ĠRoad": 8426,
      "Ġmanaged": 8427,
      "ographic": 8428,
      "rer": 8429,
      "ĠCath": 8430,
      "Ġtotally": 8431,
      "Ġ36": 8432,
      "Ġpresident": 8433,
      "ĠTuesday": 8434,
      "ĠBay": 8435,
      "ÑĭÑĤ": 8436,
      "ĠÐ¸Ñħ": 8437,
      "Ġsupported": 8438,
      "à¦¼à§ĩ": 8439,
      "ela": 8440,
      "Ġhearing": 8441,
      "Ġchoosing": 8442,
      "erts": 8443,
      "Ġdivided": 8444,
      "ĠMaster": 8445,
      "Ġinvestig": 8446,
      "Ġmystery": 8447,
      "Ġdirections": 8448,
      "Ġmechanism": 8449,
      "pack": 8450,
      "Ġgrew": 8451,
      "ĠÐ¾Ð½Ð°": 8452,
      "ìĬ": 8453,
      "Ø±ÙĪ": 8454,
      "ĠAT": 8455,
      "gi": 8456,
      "ÑĻ": 8457,
      "Ġstunning": 8458,
      "Ġ×¢×ľ": 8459,
      "å½": 8460,
      "agues": 8461,
      "Ġà¦¦": 8462,
      "ĠHaving": 8463,
      "Tr": 8464,
      "ĠThurs": 8465,
      "Ġhospital": 8466,
      "ĠÎ¿": 8467,
      "Ġcultures": 8468,
      "Ġ{\\": 8469,
      "ĠDie": 8470,
      "Ġbrows": 8471,
      "Ġmovies": 8472,
      "ilde": 8473,
      "}=\\": 8474,
      "Ġproposed": 8475,
      "}}\\": 8476,
      "Ġcoordinate": 8477,
      "Ġeggs": 8478,
      "Ð½Ñĸ": 8479,
      "Ġimmersive": 8480,
      "Ġnoting": 8481,
      "Ð¸Ð±": 8482,
      "rid": 8483,
      "Ġà¦ħ": 8484,
      "Ġsubsequ": 8485,
      "ĠWashing": 8486,
      "iano": 8487,
      "ĠÐ»ÑİÐ±": 8488,
      "ĠÐĿÐµ": 8489,
      "Ġdust": 8490,
      "Ġà¦¤": 8491,
      "Ġequilibrium": 8492,
      "ĠGre": 8493,
      "acles": 8494,
      "Ġhydrogen": 8495,
      "Ġraw": 8496,
      "åŃ": 8497,
      "ĠConf": 8498,
      "ĠAvoid": 8499,
      "Ġcandidate": 8500,
      "Ġbiggest": 8501,
      "Ġkon": 8502,
      "Ġmuscle": 8503,
      "Ġgirls": 8504,
      "ĠÐ¾Ñĩ": 8505,
      "romag": 8506,
      "Ġchannels": 8507,
      "Ġshell": 8508,
      "Ġáĥł": 8509,
      "orable": 8510,
      "Ġrust": 8511,
      "Ġclock": 8512,
      "Ġstir": 8513,
      "ĠPub": 8514,
      "anish": 8515,
      "Ġcalling": 8516,
      "ÐĴ": 8517,
      "Ġpin": 8518,
      "Ġtom": 8519,
      "Ġsuccessfully": 8520,
      "ropy": 8521,
      "ĠMad": 8522,
      "Ġsubsc": 8523,
      "function": 8524,
      "mail": 8525,
      "Ġparad": 8526,
      "ĠEqu": 8527,
      "à¸¹": 8528,
      "erce": 8529,
      "Ġáĥĺ": 8530,
      "Ã¶n": 8531,
      "Ð»Ð°Ñģ": 8532,
      "Ġrecon": 8533,
      "frak": 8534,
      "orted": 8535,
      "Ġsucceed": 8536,
      "Ġmetap": 8537,
      "Ġpointed": 8538,
      "Ġboss": 8539,
      "á»ĭ": 8540,
      "Ġtough": 8541,
      "Ġstored": 8542,
      "à¦Ĥ": 8543,
      "Ġrevealed": 8544,
      "lis": 8545,
      "metic": 8546,
      "ĠCamp": 8547,
      "Ġlistening": 8548,
      "Ġtak": 8549,
      "Ġsearching": 8550,
      "Ġphilosophy": 8551,
      "ĠÐ±ÑĭÐ»Ð¾": 8552,
      "crib": 8553,
      "Ġpm": 8554,
      "ĠÃ¤": 8555,
      "85": 8556,
      "ĠProfess": 8557,
      "ionally": 8558,
      "Ġà¤ĩ": 8559,
      "Ġdialogue": 8560,
      "anta": 8561,
      "Ġ$\\{": 8562,
      "ician": 8563,
      "ĠVide": 8564,
      "ĠSat": 8565,
      "ÐĶ": 8566,
      "ĠPri": 8567,
      "Ð¾ÑģÑĮ": 8568,
      "okes": 8569,
      "Ġparticipate": 8570,
      "Ġunexpected": 8571,
      "Ġgrat": 8572,
      "Ġproud": 8573,
      "Ġà¤ªà¤°": 8574,
      "Ġurban": 8575,
      "Ġemissions": 8576,
      "Ġstruggling": 8577,
      "ĠExam": 8578,
      "ĠEngine": 8579,
      "ĠRev": 8580,
      "Ġdiscussed": 8581,
      "Ø§Ø¡": 8582,
      "ĠNumber": 8583,
      "Ġmac": 8584,
      "Ġdual": 8585,
      "state": 8586,
      "ĠFil": 8587,
      "ĠAsk": 8588,
      "ï¼": 8589,
      "ĠTex": 8590,
      "Ġreturned": 8591,
      "Ġvert": 8592,
      "Ġbless": 8593,
      "Ġconfront": 8594,
      "Ã¹": 8595,
      "Ġfacing": 8596,
      "Ġstudying": 8597,
      "Ġenerg": 8598,
      "Ġgalax": 8599,
      "input": 8600,
      "usions": 8601,
      "Ġinspired": 8602,
      "Ġdinner": 8603,
      "Ġuncertainty": 8604,
      "itud": 8605,
      "Ġ($": 8606,
      "mond": 8607,
      "init": 8608,
      "07": 8609,
      "ĠTre": 8610,
      "Ġpolar": 8611,
      "erate": 8612,
      "ĠMuse": 8613,
      "icks": 8614,
      "Ġtag": 8615,
      "Ġcha": 8616,
      "Ġimper": 8617,
      "rav": 8618,
      "auge": 8619,
      "Ġimplementing": 8620,
      "Ġannual": 8621,
      "ĠJul": 8622,
      "Ġcompetitive": 8623,
      "Ġengaged": 8624,
      "ronic": 8625,
      "46": 8626,
      "Ġwonderful": 8627,
      "iest": 8628,
      "Ġsupports": 8629,
      "ãĥ©": 8630,
      "Ġwebsites": 8631,
      "Ġneighb": 8632,
      "Ġcognitive": 8633,
      "lete": 8634,
      "Ġsevere": 8635,
      "Ġfailed": 8636,
      "Õ¡Õ¾": 8637,
      "Ġquarter": 8638,
      "iden": 8639,
      "Ġsubset": 8640,
      "Ġmachines": 8641,
      "ĠAS": 8642,
      "Ġvertical": 8643,
      "Ġtab": 8644,
      "ĠCa": 8645,
      "forward": 8646,
      "Ġaccounts": 8647,
      "ĠWednes": 8648,
      "iÃ³": 8649,
      "ĠLand": 8650,
      "43": 8651,
      "tu": 8652,
      "Ġcalculation": 8653,
      "ĠIl": 8654,
      "ĠLatin": 8655,
      "Ġpharm": 8656,
      "æĺ": 8657,
      "ĠPhD": 8658,
      "Ġmeasurement": 8659,
      "rag": 8660,
      "Ġorth": 8661,
      "pat": 8662,
      "àµ½": 8663,
      "ĠJewish": 8664,
      "Ġthousands": 8665,
      "Ġ(-": 8666,
      "Ġmetrics": 8667,
      "Ġcoc": 8668,
      "Ġaside": 8669,
      "Ġcalm": 8670,
      "cts": 8671,
      "rosc": 8672,
      "Ġdifficulty": 8673,
      "Ġdecrease": 8674,
      "ĠTHE": 8675,
      "ĠPet": 8676,
      "Ġchem": 8677,
      "Ġnaturally": 8678,
      "td": 8679,
      "Ġcombine": 8680,
      "ĠØ·": 8681,
      "ĠÐºÐ¾Ð³Ð´Ð°": 8682,
      "àµ¼": 8683,
      "ĠPhot": 8684,
      "Ġexcit": 8685,
      "Ġdies": 8686,
      "Ġbeliefs": 8687,
      "Õ¥ÖĢÕ": 8688,
      "ishment": 8689,
      "ulf": 8690,
      "Ġseal": 8691,
      "Ġeffectiveness": 8692,
      "Ġkeeps": 8693,
      "Ġcarried": 8694,
      "weight": 8695,
      "Ġnom": 8696,
      "Õ¡Õ½": 8697,
      "Ġsector": 8698,
      "Ġversions": 8699,
      "Ġemergency": 8700,
      "Ġrecall": 8701,
      "LL": 8702,
      "Ġshock": 8703,
      "ova": 8704,
      "Ġhighlights": 8705,
      "Ġopened": 8706,
      "Ġresil": 8707,
      "ĠFull": 8708,
      "ĠAnaly": 8709,
      "03": 8710,
      "Ġ195": 8711,
      "Ġflowers": 8712,
      "Ġ\\,": 8713,
      "ĠEU": 8714,
      "Ġroof": 8715,
      "Ġbringing": 8716,
      "Ð¾ÑĤÑĢ": 8717,
      "ogen": 8718,
      "Ġmarriage": 8719,
      "Ġtradition": 8720,
      "NT": 8721,
      "ĠÐ¾ÑĢ": 8722,
      "Ġoperators": 8723,
      "ĠFranc": 8724,
      "Ġkinetic": 8725,
      "ĠLim": 8726,
      "Ġble": 8727,
      "Ġven": 8728,
      "Ġfru": 8729,
      "Ġformation": 8730,
      "ĠÑħÐ¾Ñĩ": 8731,
      "Î½Î±": 8732,
      "ĠÐķÑģÐ»Ð¸": 8733,
      "Ġhur": 8734,
      "iking": 8735,
      "ĠÐ±ÑĥÐ´ÐµÑĤ": 8736,
      "Ġmood": 8737,
      "oma": 8738,
      "aya": 8739,
      "Ġ300": 8740,
      "Ð°Ð½Ð°": 8741,
      "ÐºÑĢÐ°": 8742,
      "Ġphoton": 8743,
      "Ġballs": 8744,
      "Ġexposure": 8745,
      "ĠHa": 8746,
      "ĠÎ½": 8747,
      "ĠBlue": 8748,
      "ĠUnf": 8749,
      "Ġlux": 8750,
      "ãģĤ": 8751,
      "Ġmanaging": 8752,
      "Ð½Ð¾ÑģÑĤÑĮ": 8753,
      "Ùĭ": 8754,
      "Ġvit": 8755,
      "Ġnotion": 8756,
      "Ġilleg": 8757,
      "Ġnotation": 8758,
      "ĠThursday": 8759,
      "Ġdescribing": 8760,
      "holders": 8761,
      "ĨĴ": 8762,
      "Ġtact": 8763,
      "ĠWashington": 8764,
      "ë¦": 8765,
      "ĠÎ³": 8766,
      "ĠÑĥÑĩ": 8767,
      "values": 8768,
      "Ġrequests": 8769,
      "Ġaward": 8770,
      "Ġearn": 8771,
      "Ġidentifying": 8772,
      "Ġcere": 8773,
      "Ġrooms": 8774,
      "Ġweekend": 8775,
      "08": 8776,
      "Ðľ": 8777,
      "Ù¹": 8778,
      "à´·": 8779,
      "Ġdefault": 8780,
      "Ġinfo": 8781,
      "Ġcampaigns": 8782,
      "Ġstands": 8783,
      "ĠAllah": 8784,
      "uz": 8785,
      "Ġpassword": 8786,
      "Ġsalary": 8787,
      "Ġfoods": 8788,
      "ĠMusic": 8789,
      "Ġ×Ĵ": 8790,
      "ÑĤÑĭ": 8791,
      "estyle": 8792,
      "Ã©g": 8793,
      "Ġemphasis": 8794,
      "cm": 8795,
      "ĠÃ¥": 8796,
      "ĠGrand": 8797,
      "Ġuniversal": 8798,
      "ĠEducation": 8799,
      "ĠPut": 8800,
      "uj": 8801,
      "Ġdarkness": 8802,
      "cs": 8803,
      "Ġdefend": 8804,
      "Ġelectronic": 8805,
      "ĠContact": 8806,
      "Ð¼ÐµÑĢ": 8807,
      "Ġindustrial": 8808,
      "iones": 8809,
      "Ġyellow": 8810,
      "ĠOffice": 8811,
      "iat": 8812,
      "ĠSearch": 8813,
      "ĠCat": 8814,
      "Ġended": 8815,
      "cha": 8816,
      "Ġpresentation": 8817,
      "Ġfederal": 8818,
      "Ġsurvey": 8819,
      "Ð¿ÑĢÐ°Ð²": 8820,
      "ĠRad": 8821,
      "cket": 8822,
      "ÑģÐºÐ¾Ð³Ð¾": 8823,
      "Ġdetermin": 8824,
      "IP": 8825,
      "Ġpartial": 8826,
      "Ġà®İ": 8827,
      "Ġbottle": 8828,
      "Ġsessions": 8829,
      "Ġchannel": 8830,
      "nie": 8831,
      "Ġexploration": 8832,
      "à®Ļ": 8833,
      "arer": 8834,
      "Ġguitar": 8835,
      "åĬ": 8836,
      "Ġexhaust": 8837,
      "hol": 8838,
      "ĠÑģÐµÐ±": 8839,
      "09": 8840,
      "ilton": 8841,
      "uten": 8842,
      "uma": 8843,
      "ĠClick": 8844,
      "Ġprison": 8845,
      "Ġconclude": 8846,
      "ĠCook": 8847,
      "Ġmodified": 8848,
      "41": 8849,
      "Ġclothes": 8850,
      "Ġru": 8851,
      "Ġswim": 8852,
      "Ġstim": 8853,
      "acc": 8854,
      "Ġmerely": 8855,
      "Ġwires": 8856,
      "Ġcub": 8857,
      "Ġextent": 8858,
      "Ġelectricity": 8859,
      "Ġforth": 8860,
      "Ð»Ð¾Ð¶": 8861,
      "Ġterrit": 8862,
      "Ġimply": 8863,
      "Ġconcentration": 8864,
      "lay": 8865,
      "ĠContin": 8866,
      "Ġheavily": 8867,
      "06": 8868,
      "azine": 8869,
      "ĠÐŁÐ¾": 8870,
      "Ġlosing": 8871,
      "ÑĶ": 8872,
      "Ġfib": 8873,
      "à¹ĩ": 8874,
      "Ġcontradict": 8875,
      "ĠYe": 8876,
      "Ä±r": 8877,
      "ĠJournal": 8878,
      "Ġrein": 8879,
      "Ġparticipants": 8880,
      "¿½": 8881,
      "Ã©e": 8882,
      "Ġvillage": 8883,
      "ĠNor": 8884,
      "Ġtense": 8885,
      "Ġcompelling": 8886,
      "arios": 8887,
      "×ģ": 8888,
      "afe": 8889,
      "Ġscientists": 8890,
      "Ġguidelines": 8891,
      "Ġpand": 8892,
      "endar": 8893,
      "assion": 8894,
      "Ġregression": 8895,
      "Ġclin": 8896,
      "mathfrak": 8897,
      "Ġox": 8898,
      "color": 8899,
      "Ġkan": 8900,
      "Ġarbitrary": 8901,
      "Ġjustice": 8902,
      "Ġaid": 8903,
      "Ġbaking": 8904,
      "edy": 8905,
      "ĠEnergy": 8906,
      "ë¥¼": 8907,
      "Ġnetworks": 8908,
      "idents": 8909,
      "Ġ=>": 8910,
      "ĠHebrew": 8911,
      "Ġmechanical": 8912,
      "ĠÃ§": 8913,
      "Ġmaxim": 8914,
      "Ġintermedi": 8915,
      "Ġstrengths": 8916,
      "Å¥": 8917,
      "Ġexpon": 8918,
      "Ġincreasingly": 8919,
      "utical": 8920,
      "amente": 8921,
      "à®´": 8922,
      "asted": 8923,
      "ãĥª": 8924,
      "Ġposted": 8925,
      "omorphic": 8926,
      "ĠWednesday": 8927,
      "Ġeditor": 8928,
      "ĠUSER": 8929,
      "Ġpitch": 8930,
      "Bbb": 8931,
      "deed": 8932,
      "Ġdeck": 8933,
      "ĠRiver": 8934,
      "Ġwelcome": 8935,
      "Ġmirror": 8936,
      "Ar": 8937,
      "anes": 8938,
      "ĠEnt": 8939,
      "á»Ľ": 8940,
      "Ġangular": 8941,
      "Ġfaces": 8942,
      "ĠÐ½Ð¸Ðº": 8943,
      "Ġcrim": 8944,
      "Ġliterally": 8945,
      "Ġintense": 8946,
      "Ġcompat": 8947,
      "Ġnucle": 8948,
      "Ġwing": 8949,
      "Ġintel": 8950,
      "ãģĻãĤĭ": 8951,
      "To": 8952,
      "azz": 8953,
      "à¦§": 8954,
      "Ġambig": 8955,
      "Ġexpenses": 8956,
      "ĠÑĤÐµÐ±Ðµ": 8957,
      "Ġbuying": 8958,
      "Ġelectro": 8959,
      "Ġmistakes": 8960,
      "Ġremoving": 8961,
      "Ø§ÙĤ": 8962,
      "linear": 8963,
      "Ġprecisely": 8964,
      "Ġaffordable": 8965,
      "oted": 8966,
      "Ġfalling": 8967,
      "Ġti": 8968,
      "Ġdans": 8969,
      "ulty": 8970,
      "No": 8971,
      "Ġsole": 8972,
      "Ġcharacteristic": 8973,
      "gence": 8974,
      "Ġquery": 8975,
      "ĠIslam": 8976,
      "Ġavailability": 8977,
      "Ġdesires": 8978,
      "Ġbranch": 8979,
      "Ġfriction": 8980,
      "ÏĥÎ·": 8981,
      "Ġtracking": 8982,
      "ĠMiss": 8983,
      "Ġrequirement": 8984,
      "ĠÃ®n": 8985,
      "Ġcapabilities": 8986,
      "è¨": 8987,
      "ĠPay": 8988,
      "ĠHoly": 8989,
      "Ġobjective": 8990,
      "ÏģÎ¹": 8991,
      "Ġqui": 8992,
      "nesses": 8993,
      "ĠÚ©ÙĪ": 8994,
      "ĠMel": 8995,
      "Ġáĥ¨": 8996,
      "Ġcomposition": 8997,
      "Ġinitially": 8998,
      "Ġê°": 8999,
      "Ġunusual": 9000,
      "Ġnegot": 9001,
      "Ġsad": 9002,
      "Ġcá»§": 9003,
      "eness": 9004,
      "Ġdelay": 9005,
      "Un": 9006,
      "Ð»ÐµÐ´": 9007,
      "oria": 9008,
      "Ġmovements": 9009,
      "trans": 9010,
      "Ġpersonally": 9011,
      "Ġdriven": 9012,
      "ĠMo": 9013,
      "Ġexceed": 9014,
      "Ã¤Ã¤": 9015,
      "Ġgap": 9016,
      "ende": 9017,
      "Ġstrongly": 9018,
      "ymbol": 9019,
      "acle": 9020,
      "ethyl": 9021,
      "clusion": 9022,
      "Ġpotato": 9023,
      "valu": 9024,
      "ĠDC": 9025,
      "áĥĲáĥł": 9026,
      "FT": 9027,
      "Ġwal": 9028,
      "AG": 9029,
      "Ġsister": 9030,
      "idade": 9031,
      "Ġhumanity": 9032,
      "Ġfrust": 9033,
      "Ġmarried": 9034,
      "ĠWood": 9035,
      "front": 9036,
      "hered": 9037,
      "Ġrestaurants": 9038,
      "fall": 9039,
      "Ġconsole": 9040,
      "ĠConnect": 9041,
      "obe": 9042,
      "ĠÚ©Ùĩ": 9043,
      "Ġbeings": 9044,
      "Ġbusy": 9045,
      "Ð¸Ð¼Ð¸": 9046,
      "Ġpercentage": 9047,
      "ĠLou": 9048,
      "Ġportion": 9049,
      "Ġgender": 9050,
      "ĠPur": 9051,
      "ĠDownload": 9052,
      "umps": 9053,
      "Ġcolon": 9054,
      "ĠRock": 9055,
      "Ġinterior": 9056,
      "ÙĪÚº": 9057,
      "ĠØ³ÛĴ": 9058,
      "Ġprimarily": 9059,
      "itage": 9060,
      "ocate": 9061,
      "Ð°Ð½Ð¸Ð¸": 9062,
      "Ġhorizont": 9063,
      "aze": 9064,
      "ĠMach": 9065,
      "ĠÐ½Ð°Ñĩ": 9066,
      "Ġtopology": 9067,
      "Ġagency": 9068,
      "abet": 9069,
      "Ġmeets": 9070,
      "ĠDig": 9071,
      "Ġrecognition": 9072,
      "à¸Ĥ": 9073,
      "Ð½ÑĥÑİ": 9074,
      "...]": 9075,
      "Ġmonitoring": 9076,
      "Ġbought": 9077,
      "Ð¸ÑģÑĮ": 9078,
      "Ġinjury": 9079,
      "Ġcá»§a": 9080,
      "onym": 9081,
      "ãģį": 9082,
      "Ġ75": 9083,
      "Ġrhyth": 9084,
      "rency": 9085,
      "Ġcontrolled": 9086,
      "Ġriver": 9087,
      "Ġgrammat": 9088,
      "ĠÚĨ": 9089,
      "alysis": 9090,
      "Ġsnail": 9091,
      ".'": 9092,
      "Ġgrown": 9093,
      "Ã©r": 9094,
      "Ġrepeat": 9095,
      "Ġ120": 9096,
      "ĠÐ¾Ðº": 9097,
      "Ġchopped": 9098,
      "98": 9099,
      "ĠÐ²Ð°Ñģ": 9100,
      "Ġloose": 9101,
      "ĠCalcul": 9102,
      "ĠAbsolute": 9103,
      "ĠÐ´ÑĥÐ¼": 9104,
      "æĪ": 9105,
      "æķ": 9106,
      "umes": 9107,
      "Ġmarkets": 9108,
      "OW": 9109,
      "ĠEmp": 9110,
      "operator": 9111,
      "ĠDevelopment": 9112,
      "ê°Ģ": 9113,
      "ĠCouncil": 9114,
      "istent": 9115,
      "aceutical": 9116,
      "Ġinitiatives": 9117,
      "Ð°ÑĢÐ¸": 9118,
      "CD": 9119,
      "Ġspeakers": 9120,
      "Ġgentle": 9121,
      "Ġfif": 9122,
      "ÑĥÐ²Ð°": 9123,
      "ĠRussia": 9124,
      "ĠAfrica": 9125,
      "adv": 9126,
      "Ġexclusive": 9127,
      "Ġyours": 9128,
      "àµĤ": 9129,
      "inity": 9130,
      "Ġdating": 9131,
      "Ġappeared": 9132,
      "orous": 9133,
      "Ġincident": 9134,
      "áĥĿáĥĽ": 9135,
      "ĠGard": 9136,
      "plate": 9137,
      "Ġapps": 9138,
      "×ķ×Ĳ": 9139,
      "Ġpublish": 9140,
      "ĠColl": 9141,
      "ĠWrit": 9142,
      "sto": 9143,
      "ÑģÐºÐ¸Ð¹": 9144,
      "Ġ×ľ×Ķ": 9145,
      "aven": 9146,
      "Ġinverse": 9147,
      "Ġenthus": 9148,
      "ÐµÐ»Ð¾Ð²": 9149,
      "ĠFrank": 9150,
      "Ġextend": 9151,
      "ĠArab": 9152,
      "ĠÐŀÐ±": 9153,
      "Gamma": 9154,
      "Ġpip": 9155,
      "Ġalcohol": 9156,
      "Ġwhenever": 9157,
      "Ġpaying": 9158,
      "\"\"": 9159,
      "Ġchocolate": 9160,
      "ĠJob": 9161,
      "ĠSn": 9162,
      "Ġshapes": 9163,
      "Æ°á»£": 9164,
      "ĠFlor": 9165,
      "Ġreduces": 9166,
      "ĠDNA": 9167,
      "ĠØĮ": 9168,
      "Ġanalyzing": 9169,
      "Ġvacuum": 9170,
      "ateful": 9171,
      "ì§Ģ": 9172,
      "ĠMess": 9173,
      "ivo": 9174,
      "Ġimpacts": 9175,
      "Õ¯": 9176,
      "uals": 9177,
      "vare": 9178,
      "ĠWestern": 9179,
      "ĠÐĶÐ°": 9180,
      "Ġoriginally": 9181,
      "di": 9182,
      "Script": 9183,
      "ĠInstagram": 9184,
      "such": 9185,
      "ëı": 9186,
      "Ġreligion": 9187,
      "ĠÐľÑĭ": 9188,
      "[\\": 9189,
      "Ġ×ĸ": 9190,
      "ìĿĢ": 9191,
      "det": 9192,
      "Ġsongs": 9193,
      "ĠMont": 9194,
      "ĠIndust": 9195,
      "Ġmais": 9196,
      "zed": 9197,
      "ĠÐ½ÑĥÐ¶": 9198,
      "Ġgonna": 9199,
      "ĠIndeed": 9200,
      "ĠØ¹ÙĦÙī": 9201,
      "gers": 9202,
      "js": 9203,
      "ĠÐ½ÐµÑĤ": 9204,
      "Ġenvironments": 9205,
      "áĥ®": 9206,
      "Ġinspect": 9207,
      "Ġnerv": 9208,
      "ements": 9209,
      "Ġperforming": 9210,
      "Ġfourth": 9211,
      "Ġcompute": 9212,
      "ÐµÑĢÐ°": 9213,
      "ifting": 9214,
      "Ġadop": 9215,
      "Ġmatches": 9216,
      "emb": 9217,
      "angers": 9218,
      "Ġvisiting": 9219,
      "Ġmotivations": 9220,
      "ĠGeorge": 9221,
      "Ġreverse": 9222,
      "ĠNav": 9223,
      "ĠRest": 9224,
      "Ã©n": 9225,
      "Ġdiscipl": 9226,
      "iar": 9227,
      "Ġpipe": 9228,
      "ĠBrown": 9229,
      "Ġfunds": 9230,
      "Ġblend": 9231,
      "Ġsegment": 9232,
      "Ġmagnitude": 9233,
      "Ġperiods": 9234,
      "Is": 9235,
      "Ġba": 9236,
      "ĠÐļÐ°Ðº": 9237,
      "ĠED": 9238,
      "Ġselling": 9239,
      "ĠReturn": 9240,
      "But": 9241,
      "gener": 9242,
      "ifferent": 9243,
      "athy": 9244,
      "Ġsees": 9245,
      "Ġgreatest": 9246,
      "Ġdivision": 9247,
      "ĠTexas": 9248,
      "tion": 9249,
      "Ġshoes": 9250,
      "Ġinches": 9251,
      "Ġprofessor": 9252,
      "Ġsections": 9253,
      "Ġà´¤": 9254,
      "âĢ¦]": 9255,
      "neq": 9256,
      "Ġadults": 9257,
      "?)": 9258,
      "Ġrevolution": 9259,
      "Ð¼Ñĥ": 9260,
      "orical": 9261,
      "ultane": 9262,
      "Ġconsideration": 9263,
      "Ġfalls": 9264,
      "Ġannounced": 9265,
      "Ġrealistic": 9266,
      "endo": 9267,
      "Ġecos": 9268,
      "appy": 9269,
      "Ġwindows": 9270,
      "Ġnuanced": 9271,
      "acks": 9272,
      "eling": 9273,
      "Ġinstallation": 9274,
      "uine": 9275,
      "Ġdiscovery": 9276,
      "ĠÕ¶": 9277,
      "Ġdil": 9278,
      "Ġyield": 9279,
      "ĠMot": 9280,
      "Ġcenturies": 9281,
      "hal": 9282,
      "AA": 9283,
      "ridge": 9284,
      "}}$": 9285,
      "Ġexperi": 9286,
      "yan": 9287,
      "Ġdeals": 9288,
      "ĠNa": 9289,
      "Ġroughly": 9290,
      "Ġfindings": 9291,
      "Ġsomehow": 9292,
      "dig": 9293,
      "oli": 9294,
      "ĠCommunity": 9295,
      "ĠInvest": 9296,
      "Ġinspiration": 9297,
      "ĠOrig": 9298,
      "Ġspir": 9299,
      "Ġperspectives": 9300,
      "jud": 9301,
      "Ġanticip": 9302,
      "ĠCam": 9303,
      "Ġticket": 9304,
      "Ġcel": 9305,
      "rend": 9306,
      "Ġchair": 9307,
      "ĠBi": 9308,
      "Ġseeds": 9309,
      "Ġstudied": 9310,
      "Ġedition": 9311,
      "umbled": 9312,
      "Ġpilot": 9313,
      "Ġfingers": 9314,
      "Ġtube": 9315,
      "ĠUnfortunately": 9316,
      "oval": 9317,
      "ĠAssociation": 9318,
      "ĠÐ°Ð²": 9319,
      "Ġdebt": 9320,
      "ĠColor": 9321,
      "Ġ_": 9322,
      "atable": 9323,
      "Ġbin": 9324,
      "Ġlen": 9325,
      "Ġintention": 9326,
      "rog": 9327,
      "ĠSuch": 9328,
      "ĠCard": 9329,
      "Ð¼ÐµÐ½": 9330,
      "Ġfigures": 9331,
      "Ġdeploy": 9332,
      "ĠÑģÐ¾Ð²": 9333,
      "Ġincent": 9334,
      "à¦¡": 9335,
      "ä¸Ģ": 9336,
      "Ġmerc": 9337,
      "olo": 9338,
      "Ġinvestigation": 9339,
      "ĠStat": 9340,
      "áº§": 9341,
      "ĠÑĩÐ°ÑģÑĤ": 9342,
      "Ġsurprise": 9343,
      "Ġtrivial": 9344,
      "ĠSign": 9345,
      "Ġ2006": 9346,
      "Ġprocedure": 9347,
      "Ġending": 9348,
      "Ġsubstant": 9349,
      "Ġdepression": 9350,
      "Ġsynthesis": 9351,
      "ĠÐ·Ð½": 9352,
      "Ġconfiguration": 9353,
      "win": 9354,
      "ĠDark": 9355,
      "Ġmotivation": 9356,
      "Ġjuice": 9357,
      "Ù¾": 9358,
      "Ġdogs": 9359,
      "Ġengines": 9360,
      "ĠNewton": 9361,
      "Ġheads": 9362,
      "ĠAz": 9363,
      "pling": 9364,
      "Ġgrad": 9365,
      "Ġourselves": 9366,
      "Ġexpressions": 9367,
      "omething": 9368,
      "otes": 9369,
      "Ġsubmit": 9370,
      "Ġprofound": 9371,
      "Ġë°": 9372,
      "Ġdeeply": 9373,
      "ĠLar": 9374,
      "Ġdoors": 9375,
      "range": 9376,
      "åĪĨ": 9377,
      "/\\": 9378,
      "Ġproduces": 9379,
      "type": 9380,
      "ĠOK": 9381,
      "ĠÐ¿ÑĢÐ¾Ð´": 9382,
      "Ġschedul": 9383,
      "Ġsaving": 9384,
      "ĠMex": 9385,
      "iller": 9386,
      "ĠÐ¨": 9387,
      "ãģı": 9388,
      "An": 9389,
      "Ġconflicts": 9390,
      "Ġbund": 9391,
      "Ġals": 9392,
      "Ġdistributed": 9393,
      "Ġsatisfy": 9394,
      "Ġteachers": 9395,
      "rices": 9396,
      "ĠKnow": 9397,
      "Ġcooked": 9398,
      "Ð·Ð°": 9399,
      "ìķ": 9400,
      "ĠVict": 9401,
      "ĠãĤ": 9402,
      "Ġborder": 9403,
      "ÙĩØ§ÛĮ": 9404,
      "Ġath": 9405,
      "ĠMah": 9406,
      "ĠKore": 9407,
      "ĠÑģÐ»ÑĥÑĩ": 9408,
      "Ġimmediate": 9409,
      "Ġspectrum": 9410,
      "ĠMass": 9411,
      "Ġsubgroup": 9412,
      "anguage": 9413,
      "Ġessence": 9414,
      "áĥĺáĥĹ": 9415,
      "Ġexcitement": 9416,
      "Ġvend": 9417,
      "grade": 9418,
      "Ġgauge": 9419,
      "ĠDev": 9420,
      "Ġdates": 9421,
      "å°": 9422,
      "Ð°Ð½ÑĤ": 9423,
      "ìĦľ": 9424,
      "Ġvow": 9425,
      "Ġordinary": 9426,
      "connect": 9427,
      "draw": 9428,
      "Ġwedding": 9429,
      "arding": 9430,
      "Ġà¦ľ": 9431,
      "Ġkil": 9432,
      "Ġabandon": 9433,
      "ĠVi": 9434,
      "Ġbirds": 9435,
      "Â»,": 9436,
      "ĠItalian": 9437,
      "Ġconsists": 9438,
      "Ġvariation": 9439,
      "Sc": 9440,
      "Ġstuck": 9441,
      "Ġdeviation": 9442,
      "alm": 9443,
      "Ġkeys": 9444,
      "×ķ×ŀ": 9445,
      "Ġcanon": 9446,
      "SE": 9447,
      "ĠKar": 9448,
      "Ġspacetime": 9449,
      "Ġresolve": 9450,
      "Ġmindfulness": 9451,
      "Ġcm": 9452,
      "Ġarise": 9453,
[...]
